{
  "version": "1.0",
  "truncation": null,
  "padding": null,
  "added_tokens": [
    {
      "id": 0,
      "content": "<unk>",
      "single_word": false,
      "lstrip": false,
      "rstrip": false,
      "normalized": false,
      "special": true
    },
    {
      "id": 10000,
      "content": "<bos>",
      "single_word": false,
      "lstrip": false,
      "rstrip": false,
      "normalized": false,
      "special": true
    },
    {
      "id": 10001,
      "content": "<eos>",
      "single_word": false,
      "lstrip": false,
      "rstrip": false,
      "normalized": false,
      "special": true
    },
    {
      "id": 10002,
      "content": "<pad>",
      "single_word": false,
      "lstrip": false,
      "rstrip": false,
      "normalized": false,
      "special": true
    }
  ],
  "normalizer": {
    "type": "NFKC"
  },
  "pre_tokenizer": {
    "type": "Metaspace",
    "replacement": "▁",
    "add_prefix_space": true
  },
  "post_processor": null,
  "decoder": {
    "type": "Metaspace",
    "replacement": "▁",
    "add_prefix_space": true
  },
  "model": {
    "type": "BPE",
    "dropout": null,
    "unk_token": "<unk>",
    "continuing_subword_prefix": null,
    "end_of_word_suffix": null,
    "fuse_unk": false,
    "byte_fallback": false,
    "vocab": {
      "<unk>": 0,
      "\n": 1,
      "!": 2,
      "\"": 3,
      "$": 4,
      "&": 5,
      "'": 6,
      "(": 7,
      ")": 8,
      "*": 9,
      ",": 10,
      "-": 11,
      ".": 12,
      "/": 13,
      "0": 14,
      "1": 15,
      "2": 16,
      "3": 17,
      "4": 18,
      "5": 19,
      "6": 20,
      "7": 21,
      "8": 22,
      "9": 23,
      ":": 24,
      ";": 25,
      "<": 26,
      ">": 27,
      "?": 28,
      "A": 29,
      "B": 30,
      "C": 31,
      "D": 32,
      "E": 33,
      "F": 34,
      "G": 35,
      "H": 36,
      "I": 37,
      "J": 38,
      "K": 39,
      "L": 40,
      "M": 41,
      "N": 42,
      "O": 43,
      "P": 44,
      "Q": 45,
      "R": 46,
      "S": 47,
      "T": 48,
      "U": 49,
      "V": 50,
      "W": 51,
      "X": 52,
      "Y": 53,
      "Z": 54,
      "`": 55,
      "a": 56,
      "b": 57,
      "c": 58,
      "d": 59,
      "e": 60,
      "f": 61,
      "g": 62,
      "h": 63,
      "i": 64,
      "j": 65,
      "k": 66,
      "l": 67,
      "m": 68,
      "n": 69,
      "o": 70,
      "p": 71,
      "q": 72,
      "r": 73,
      "s": 74,
      "t": 75,
      "u": 76,
      "v": 77,
      "w": 78,
      "x": 79,
      "y": 80,
      "z": 81,
      "|": 82,
      "▁": 83,
      "he": 84,
      "▁t": 85,
      "▁a": 86,
      "▁s": 87,
      "▁w": 88,
      "nd": 89,
      "▁the": 90,
      "ed": 91,
      "▁and": 92,
      "▁to": 93,
      "▁b": 94,
      "in": 95,
      "▁h": 96,
      "re": 97,
      "▁wa": 98,
      "ou": 99,
      "▁f": 100,
      "it": 101,
      "▁c": 102,
      "▁l": 103,
      "▁d": 104,
      "er": 105,
      "▁he": 106,
      "▁m": 107,
      "▁p": 108,
      "▁was": 109,
      "om": 110,
      "\n\n": 111,
      "▁T": 112,
      "▁o": 113,
      "ay": 114,
      "ar": 115,
      "is": 116,
      "ing": 117,
      "il": 118,
      "▁g": 119,
      "id": 120,
      "at": 121,
      "en": 122,
      "▁n": 123,
      "▁sa": 124,
      "▁ha": 125,
      "▁S": 126,
      "▁The": 127,
      "an": 128,
      "im": 129,
      "or": 130,
      "▁it": 131,
      "on": 132,
      "▁th": 133,
      ".\n\n": 134,
      "ll": 135,
      "le": 136,
      "▁H": 137,
      "ot": 138,
      "▁her": 139,
      "et": 140,
      "ir": 141,
      "▁She": 142,
      "es": 143,
      "▁He": 144,
      "▁in": 145,
      "ut": 146,
      "ow": 147,
      "ver": 148,
      "ck": 149,
      "▁They": 150,
      "▁e": 151,
      "▁u": 152,
      "▁y": 153,
      "ld": 154,
      "▁said": 155,
      "oo": 156,
      "e.": 157,
      "▁\"": 158,
      "ily": 159,
      "ig": 160,
      "am": 161,
      "▁be": 162,
      "▁r": 163,
      "▁st": 164,
      "▁I": 165,
      "▁she": 166,
      "pp": 167,
      "ith": 168,
      "▁L": 169,
      "▁with": 170,
      "ke": 171,
      "On": 172,
      "▁on": 173,
      "▁you": 174,
      "▁of": 175,
      "ve": 176,
      "s.": 177,
      "ked": 178,
      "ri": 179,
      "ad": 180,
      "nt": 181,
      "▁so": 182,
      "ce": 183,
      "▁his": 184,
      "▁pl": 185,
      "very": 186,
      "▁day": 187,
      "▁that": 188,
      "y.": 189,
      "▁Lily": 190,
      "▁up": 191,
      "▁On": 192,
      "▁had": 193,
      "▁they": 194,
      "st": 195,
      "▁play": 196,
      "▁we": 197,
      "▁mom": 198,
      "▁B": 199,
      "▁for": 200,
      "el": 201,
      "'s": 202,
      "ould": 203,
      "un": 204,
      "The": 205,
      "▁li": 206,
      "ch": 207,
      "ent": 208,
      "e,": 209,
      "▁happ": 210,
      "out": 211,
      "▁want": 212,
      "▁sh": 213,
      "itt": 214,
      "her": 215,
      "my": 216,
      "▁do": 217,
      "▁not": 218,
      "▁very": 219,
      "▁wh": 220,
      "ound": 221,
      "end": 222,
      "ittle": 223,
      "▁k": 224,
      "▁M": 225,
      "▁tim": 226,
      "▁said,": 227,
      "\"\n\n": 228,
      "al": 229,
      "all": 230,
      "▁there": 231,
      "▁little": 232,
      "ht": 233,
      "▁ne": 234,
      "▁re": 235,
      "▁\n\n": 236,
      "▁sm": 237,
      "▁big": 238,
      "ly": 239,
      "▁is": 240,
      "▁but": 241,
      "▁It": 242,
      "ack": 243,
      "▁an": 244,
      "▁saw": 245,
      "▁as": 246,
      "▁day,": 247,
      "ra": 248,
      "riend": 249,
      "▁friend": 250,
      "▁som": 251,
      "'t": 252,
      "ug": 253,
      "▁were": 254,
      "ter": 255,
      "ved": 256,
      "▁loo": 257,
      "ore": 258,
      "▁lo": 259,
      "ec": 260,
      "ake": 261,
      "▁Once": 262,
      "se": 263,
      "▁go": 264,
      "▁too": 265,
      "▁him": 266,
      "▁Tim": 267,
      "ill": 268,
      "▁bo": 269,
      "▁happy": 270,
      "▁are": 271,
      "▁wanted": 272,
      "▁se": 273,
      "irl": 274,
      "ard": 275,
      "ed.": 276,
      "▁j": 277,
      "▁upon": 278,
      "ry": 279,
      "▁out": 280,
      "▁girl": 281,
      ".\n\n\"": 282,
      "▁A": 283,
      "ur": 284,
      "ic": 285,
      "fu": 286,
      "▁them": 287,
      "▁at": 288,
      "▁their": 289,
      "ind": 290,
      "▁did": 291,
      "▁smil": 292,
      "way": 293,
      "▁sp": 294,
      "▁could": 295,
      "hen": 296,
      "▁have": 297,
      "ide": 298,
      "ain": 299,
      "▁J": 300,
      "▁ex": 301,
      "art": 302,
      "▁can": 303,
      "hed": 304,
      "rom": 305,
      "▁went": 306,
      "▁time,": 307,
      "▁ar": 308,
      "▁Ben": 309,
      "ful": 310,
      ".\n\nThe": 311,
      "!\"": 312,
      "hing": 313,
      "▁hel": 314,
      "ight": 315,
      "ood": 316,
      "▁nam": 317,
      "▁kn": 318,
      "▁all": 319,
      "▁Tom": 320,
      "▁help": 321,
      "▁One": 322,
      "n't": 323,
      "s,": 324,
      "▁back": 325,
      "um": 326,
      "ark": 327,
      "You": 328,
      "▁ca": 329,
      "▁no": 330,
      "▁say": 331,
      "▁fun": 332,
      "▁cl": 333,
      "▁le": 334,
      "op": 335,
      "▁sc": 336,
      "▁named": 337,
      "▁al": 338,
      "oug": 339,
      "elt": 340,
      "▁loved": 341,
      "▁asked": 342,
      "ick": 343,
      "▁felt": 344,
      "▁man": 345,
      "▁like": 346,
      "▁fe": 347,
      "▁br": 348,
      "▁looked": 349,
      "▁around": 350,
      "▁ro": 351,
      "▁W": 352,
      "▁bir": 353,
      "▁some": 354,
      "ure": 355,
      "▁see": 356,
      "as": 357,
      "EU": 358,
      "EUR": 359,
      "▁start": 360,
      "get": 361,
      "▁would": 362,
      "ong": 363,
      "▁toy": 364,
      "▁bird": 365,
      "▁somet": 366,
      "ame": 367,
      "▁it.": 368,
      "dd": 369,
      "one": 370,
      "▁what": 371,
      "▁make": 372,
      "▁smiled": 373,
      "▁fa": 374,
      "▁wor": 375,
      "▁But": 376,
      "own": 377,
      "▁You": 378,
      "▁ag": 379,
      "▁mad": 380,
      "king": 381,
      "▁Timmy": 382,
      "▁boy": 383,
      "oud": 384,
      "▁tre": 385,
      "▁away": 386,
      "▁me": 387,
      "gether": 388,
      "▁started": 389,
      "▁thing": 390,
      "▁ran": 391,
      "ag": 392,
      "if": 393,
      "▁\"I": 394,
      "▁something": 395,
      "ome": 396,
      "ther": 397,
      "▁together": 398,
      "▁made": 399,
      "▁car": 400,
      "▁co": 401,
      "▁time": 402,
      "▁other": 403,
      "▁sad": 404,
      "ook": 405,
      "▁new": 406,
      "▁park": 407,
      "▁exc": 408,
      "▁scar": 409,
      "ell": 410,
      "?\"": 411,
      "▁mu": 412,
      ".\"\n\n": 413,
      "▁from": 414,
      "▁fl": 415,
      "▁pr": 416,
      "▁put": 417,
      "hat": 418,
      "ach": 419,
      "ice": 420,
      "▁la": 421,
      "ble": 422,
      "▁excit": 423,
      "▁hug": 424,
      "ous": 425,
      "▁who": 426,
      "▁when": 427,
      "Lily": 428,
      "ie": 429,
      "est": 430,
      "▁again": 431,
      "▁good": 432,
      "▁found": 433,
      "▁dec": 434,
      "▁ch": 435,
      ",\"": 436,
      "ep": 437,
      "▁then": 438,
      "▁wal": 439,
      "es.": 440,
      "pl": 441,
      "ought": 442,
      "▁get": 443,
      "side": 444,
      "▁E": 445,
      "na": 446,
      "pped": 447,
      "One": 448,
      "▁playing": 449,
      "uck": 450,
      "▁got": 451,
      "ro": 452,
      "▁Mom": 453,
      "▁sw": 454,
      "▁liked": 455,
      "ally": 456,
      "ara": 457,
      "▁friends": 458,
      "qu": 459,
      "▁D": 460,
      "▁dog": 461,
      "▁your": 462,
      "er.": 463,
      "▁decid": 464,
      "▁bl": 465,
      "ried": 466,
      "▁decided": 467,
      "ax": 468,
      "▁down": 469,
      "ist": 470,
      "▁came": 471,
      "▁every": 472,
      "▁ab": 473,
      "▁care": 474,
      "ust": 475,
      "▁v": 476,
      "▁find": 477,
      "▁bec": 478,
      "ed,": 479,
      "▁than": 480,
      "aEUR": 481,
      "▁dad": 482,
      "▁about": 483,
      "ant": 484,
      "udd": 485,
      "▁feel": 486,
      "▁my": 487,
      "▁gra": 488,
      "our": 489,
      "▁Sam": 490,
      "arn": 491,
      "ave": 492,
      "▁will": 493,
      "us": 494,
      "nna": 495,
      "▁took": 496,
      "▁look": 497,
      "▁ke": 498,
      "ways": 499,
      "nder": 500,
      "ing.": 501,
      "▁po": 502,
      "▁gr": 503,
      "▁always": 504,
      "▁didn't": 505,
      "▁ta": 506,
      "ny": 507,
      "ac": 508,
      "▁\n\nThe": 509,
      "▁kne": 510,
      "on't": 511,
      "▁lot": 512,
      "▁F": 513,
      "are": 514,
      "▁thought": 515,
      "bb": 516,
      "ss": 517,
      ".\n\nOne": 518,
      "eci": 519,
      "es,": 520,
      "▁learn": 521,
      "▁Lily.": 522,
      "▁more": 523,
      "▁pre": 524,
      "▁int": 525,
      "▁tr": 526,
      "!\"\n\n": 527,
      "▁one": 528,
      "o,": 529,
      "▁know": 530,
      "oe": 531,
      "▁old": 532,
      ".\"": 533,
      "▁\"W": 534,
      "▁ho": 535,
      "▁Max": 536,
      "ap": 537,
      "▁sor": 538,
      "▁speci": 539,
      "▁special": 540,
      "▁excited": 541,
      ".\n\nS": 542,
      "udden": 543,
      "▁take": 544,
      "▁happy.": 545,
      "▁knew": 546,
      "▁ball": 547,
      "ly,": 548,
      "ged": 549,
      "▁laug": 550,
      "et's": 551,
      "ma": 552,
      "▁any": 553,
      "▁cat": 554,
      "▁Sara": 555,
      "▁mommy": 556,
      "?\"\n\n": 557,
      "▁how": 558,
      "▁show": 559,
      "▁tw": 560,
      "fter": 561,
      "▁friends.": 562,
      "ink": 563,
      "▁sl": 564,
      "But": 565,
      "ue": 566,
      "▁pe": 567,
      "▁hand": 568,
      "ia": 569,
      "▁much": 570,
      "pen": 571,
      "ess": 572,
      "ive": 573,
      "ish": 574,
      "ven": 575,
      "▁things": 576,
      "▁said.": 577,
      "▁run": 578,
      "▁sk": 579,
      "▁mo": 580,
      "▁told": 581,
      "au": 582,
      "uc": 583,
      "▁into": 584,
      "ry.": 585,
      "▁\"T": 586,
      "▁proud": 587,
      "▁sun": 588,
      "▁Anna": 589,
      "▁room": 590,
      "ite": 591,
      "ak": 592,
      "▁or": 593,
      "▁this": 594,
      "▁gave": 595,
      "▁en": 596,
      "▁on,": 597,
      "▁water": 598,
      "▁tried": 599,
      "▁if": 600,
      "▁each": 601,
      "▁We": 602,
      "ion": 603,
      "other": 604,
      "fe": 605,
      "▁hom": 606,
      "ank": 607,
      "▁com": 608,
      "▁couldn't": 609,
      "▁heard": 610,
      "▁expl": 611,
      "▁over": 612,
      "▁open": 613,
      "ower": 614,
      "▁pret": 615,
      "▁never": 616,
      "▁eat": 617,
      "ause": 618,
      "ide.": 619,
      "▁gre": 620,
      "▁clo": 621,
      "▁Every": 622,
      "ear": 623,
      "y,": 624,
      "'m": 625,
      "▁qu": 626,
      "▁pick": 627,
      "uddenly,": 628,
      "▁just": 629,
      "etter": 630,
      "ob": 631,
      "▁box": 632,
      "ump": 633,
      "▁off": 634,
      "▁because": 635,
      "Mom": 636,
      "here": 637,
      "oth": 638,
      "▁wat": 639,
      "▁str": 640,
      "▁hugged": 641,
      "▁again.": 642,
      "▁fo": 643,
      "▁bu": 644,
      "▁played": 645,
      "▁long": 646,
      "ort": 647,
      "▁many": 648,
      "iz": 649,
      "▁outside": 650,
      "▁small": 651,
      "ang": 652,
      "▁need": 653,
      "▁Jack": 654,
      "em": 655,
      "urt": 656,
      "ving": 657,
      "and": 658,
      "elf": 659,
      "ough": 660,
      "imal": 661,
      "▁animal": 662,
      "ild": 663,
      "▁scared": 664,
      "▁learned": 665,
      "ise": 666,
      "▁call": 667,
      "▁sn": 668,
      "▁unt": 669,
      "pt": 670,
      "▁im": 671,
      ".\n\nA": 672,
      "▁ad": 673,
      "▁better": 674,
      "vent": 675,
      ".\n\nThey": 676,
      "▁him.": 677,
      "▁And": 678,
      "sed": 679,
      "▁kind": 680,
      "▁park.": 681,
      "▁until": 682,
      "urp": 683,
      "▁bear": 684,
      "▁end": 685,
      "ream": 686,
      "ft": 687,
      "▁best": 688,
      "en.": 689,
      "▁pu": 690,
      "by": 691,
      "▁bea": 692,
      "▁cle": 693,
      "▁try": 694,
      "ouse": 695,
      "▁don't": 696,
      "urn": 697,
      "▁che": 698,
      "▁sorry": 699,
      "▁love": 700,
      "▁careful": 701,
      "▁gard": 702,
      "▁beaut": 703,
      "ber": 704,
      "▁home": 705,
      "▁even": 706,
      "oh": 707,
      "▁Her": 708,
      "▁fast": 709,
      "▁her.": 710,
      "▁Mia": 711,
      "▁them.": 712,
      "▁C": 713,
      "He": 714,
      "▁toys": 715,
      "lew": 716,
      "▁loud": 717,
      "▁fi": 718,
      "▁gl": 719,
      "ohn": 720,
      "dy": 721,
      "self": 722,
      "▁thanked": 723,
      "my.": 724,
      "▁says": 725,
      "▁flower": 726,
      "▁list": 727,
      "▁laughed": 728,
      "▁ra": 729,
      "▁stay": 730,
      "ate": 731,
      "▁beauti": 732,
      "▁still": 733,
      "▁beautiful": 734,
      "▁hard": 735,
      "ect": 736,
      "▁wait": 737,
      "▁aEUR": 738,
      "▁shin": 739,
      "▁hurt": 740,
      "▁bra": 741,
      "et.": 742,
      "ched": 743,
      "▁nice": 744,
      "▁tree": 745,
      "▁lots": 746,
      "Tom": 747,
      "wn": 748,
      "▁jump": 749,
      "a.": 750,
      "▁under": 751,
      "▁together.": 752,
      "▁fam": 753,
      "▁Then": 754,
      "ool": 755,
      "▁book": 756,
      "▁wo": 757,
      "▁both": 758,
      "ore.": 759,
      "▁ang": 760,
      "▁fin": 761,
      "oy": 762,
      "ock": 763,
      "▁col": 764,
      "▁come": 765,
      "ady": 766,
      "▁His": 767,
      "▁bad": 768,
      "kay": 769,
      "▁From": 770,
      "▁by": 771,
      "▁two": 772,
      "▁aEURoe": 773,
      "Yes,": 774,
      "▁imp": 775,
      "▁flew": 776,
      "▁walked": 777,
      "▁cu": 778,
      "▁should": 779,
      "ip": 780,
      "▁lived": 781,
      "ople": 782,
      "ct": 783,
      "▁stor": 784,
      "▁rem": 785,
      "side.": 786,
      "urpr": 787,
      "▁away.": 788,
      "ty": 789,
      "hank": 790,
      "▁surpr": 791,
      "lly": 792,
      "▁its": 793,
      "▁thre": 794,
      "When": 795,
      "▁people": 796,
      "▁called": 797,
      "▁te": 798,
      "▁fore": 799,
      "▁pic": 800,
      "▁inside": 801,
      "▁too.": 802,
      "▁mom.": 803,
      "orn": 804,
      "be": 805,
      "ished": 806,
      "oon": 807,
      "▁family": 808,
      "!\n\n": 809,
      ".\n\nLily": 810,
      "▁says,": 811,
      "ing,": 812,
      "▁soon": 813,
      "▁home.": 814,
      "▁listen": 815,
      "▁share": 816,
      "igh": 817,
      "▁clean": 818,
      "▁fun.": 819,
      "▁hous": 820,
      "▁keep": 821,
      "ve.": 822,
      "▁doll": 823,
      "xt": 824,
      "▁When": 825,
      "▁\"You": 826,
      "▁dra": 827,
      "▁bef": 828,
      "▁advent": 829,
      "▁P": 830,
      "▁door": 831,
      "▁day.": 832,
      "▁you,": 833,
      "▁con": 834,
      "▁real": 835,
      "▁now": 836,
      "ile": 837,
      "▁rock": 838,
      "TM": 839,
      "ves": 840,
      "▁\"L": 841,
      "▁wind": 842,
      ".\n\nBut": 843,
      "ace": 844,
      "so": 845,
      "▁kept": 846,
      "▁also": 847,
      "▁nodd": 848,
      "thing": 849,
      "ture": 850,
      "le.": 851,
      "▁sto": 852,
      "▁Luc": 853,
      "▁ide": 854,
      "▁color": 855,
      "▁clos": 856,
      "▁feeling": 857,
      "ane": 858,
      "▁un": 859,
      "▁fr": 860,
      "▁going": 861,
      "▁turn": 862,
      "▁jo": 863,
      "imb": 864,
      "▁fly": 865,
      "▁far": 866,
      "▁opened": 867,
      "▁climb": 868,
      "▁Lily's": 869,
      "▁Dad": 870,
      "▁per": 871,
      "▁ey": 872,
      "▁thr": 873,
      "Tim": 874,
      "th": 875,
      "▁it's": 876,
      "▁red": 877,
      "▁ground": 878,
      "led": 879,
      "▁picture": 880,
      "▁it,": 881,
      "aybe": 882,
      "▁picked": 883,
      "▁next": 884,
      "ies": 885,
      "uch": 886,
      "▁adventure": 887,
      "▁way": 888,
      "▁ma": 889,
      "▁repl": 890,
      "▁wr": 891,
      "▁sad.": 892,
      "▁G": 893,
      "▁truck": 894,
      "▁dif": 895,
      "▁happen": 896,
      "▁has": 897,
      "Ben": 898,
      "▁food": 899,
      "▁give": 900,
      "ow,": 901,
      "joy": 902,
      "▁think": 903,
      "iced": 904,
      "anc": 905,
      "▁del": 906,
      "▁bro": 907,
      "ised": 908,
      "▁rain": 909,
      "▁war": 910,
      "k.": 911,
      "ff": 912,
      "▁N": 913,
      "ught": 914,
      "▁John": 915,
      "ummy": 916,
      "▁tow": 917,
      "▁walking": 918,
      "▁says.": 919,
      "▁house": 920,
      "ase": 921,
      "▁app": 922,
      "▁bre": 923,
      "▁looking": 924,
      "h.": 925,
      "▁you.": 926,
      "▁own": 927,
      "eet": 928,
      "▁stick": 929,
      "▁great": 930,
      "ember": 931,
      "▁import": 932,
      "▁after": 933,
      "kes": 934,
      "▁\"It": 935,
      "▁being": 936,
      "hat's": 937,
      "▁repli": 938,
      "his": 939,
      "▁dre": 940,
      "No,": 941,
      "▁enjoy": 942,
      "▁ever": 943,
      "▁forest": 944,
      "ine": 945,
      "▁dis": 946,
      "▁wonder": 947,
      "ted": 948,
      "▁R": 949,
      "▁smiled.": 950,
      "▁important": 951,
      "llow": 952,
      "▁pretty": 953,
      "illy": 954,
      "▁okay": 955,
      "▁brave": 956,
      "▁noticed": 957,
      "▁head": 958,
      "▁remember": 959,
      "▁Sp": 960,
      "▁vo": 961,
      "▁quick": 962,
      "▁\"O": 963,
      "▁shiny": 964,
      "▁explore": 965,
      "maz": 966,
      "gan": 967,
      "▁nois": 968,
      "aEURTM": 969,
      "▁amaz": 970,
      "bbed": 971,
      "▁shout": 972,
      "▁right": 973,
      "They": 974,
      "ice.": 975,
      "▁I'm": 976,
      "▁ask": 977,
      "▁mean": 978,
      "▁tal": 979,
      "ly.": 980,
      "ting": 981,
      "▁near": 982,
      "bbit": 983,
      "▁strong": 984,
      "▁follow": 985,
      "ized": 986,
      "▁stopped": 987,
      "▁year": 988,
      "▁cr": 989,
      "▁watched": 990,
      "▁\n\nS": 991,
      "ndma": 992,
      "▁sound": 993,
      "irst": 994,
      "fere": 995,
      "▁animals": 996,
      "▁differe": 997,
      "ow.": 998,
      "▁room.": 999,
      "▁de": 1000,
      "day": 1001,
      "▁tra": 1002,
      "▁things.": 1003,
      "▁showed": 1004,
      "▁\"Yes,": 1005,
      ".\n\n\"W": 1006,
      "▁tree.": 1007,
      "▁watch": 1008,
      "▁Lucy": 1009,
      "▁our": 1010,
      "▁big,": 1011,
      "▁kit": 1012,
      "Her": 1013,
      "▁been": 1014,
      "▁cook": 1015,
      "▁rabbit": 1016,
      "▁Suddenly,": 1017,
      "▁scared.": 1018,
      "▁fish": 1019,
      "able": 1020,
      "▁butter": 1021,
      "▁blue": 1022,
      "▁where": 1023,
      "▁Bob": 1024,
      "▁house.": 1025,
      "▁bit": 1026,
      "▁cry": 1027,
      "▁end.": 1028,
      "▁before": 1029,
      "▁then,": 1030,
      "▁different": 1031,
      "▁goodby": 1032,
      "▁ac": 1033,
      "ge": 1034,
      "▁became": 1035,
      "▁block": 1036,
      "▁sure": 1037,
      "one.": 1038,
      "▁tell": 1039,
      "▁hop": 1040,
      "▁\"D": 1041,
      "▁bright": 1042,
      "co": 1043,
      "▁yell": 1044,
      "▁mag": 1045,
      "▁use": 1046,
      "hes": 1047,
      "▁am": 1048,
      "▁safe": 1049,
      "▁garden": 1050,
      "▁Spot": 1051,
      "▁curi": 1052,
      "▁high": 1053,
      "er,": 1054,
      "▁night": 1055,
      "▁child": 1056,
      "▁walk": 1057,
      "▁does": 1058,
      "ke.": 1059,
      "▁shar": 1060,
      "▁grabbed": 1061,
      "▁forg": 1062,
      "les": 1063,
      "ng": 1064,
      "ung": 1065,
      "▁pain": 1066,
      "ious": 1067,
      "air": 1068,
      "▁only": 1069,
      ".\n\n\"L": 1070,
      "▁z": 1071,
      "ount": 1072,
      "▁bel": 1073,
      "▁pull": 1074,
      "▁here": 1075,
      "ached": 1076,
      "▁boat": 1077,
      "▁bun": 1078,
      "▁fav": 1079,
      "▁squ": 1080,
      "▁lea": 1081,
      "▁glad": 1082,
      "▁bus": 1083,
      "▁kid": 1084,
      "▁duck": 1085,
      "ila": 1086,
      "chen": 1087,
      "▁\n\nA": 1088,
      "▁kitchen": 1089,
      ".\n\n\"I": 1090,
      "▁quickly": 1091,
      ".\n\nJ": 1092,
      "▁hear": 1093,
      "▁read": 1094,
      "▁warm": 1095,
      "inn": 1096,
      "iss": 1097,
      "▁draw": 1098,
      "▁three": 1099,
      "Can": 1100,
      "on.": 1101,
      "▁Timmy.": 1102,
      "▁cont": 1103,
      "▁first": 1104,
      ".\n\nWhen": 1105,
      "▁everyone": 1106,
      "▁let": 1107,
      "▁ru": 1108,
      "▁anym": 1109,
      "▁mum": 1110,
      "▁brother": 1111,
      "ous.": 1112,
      "▁fell": 1113,
      "▁toys.": 1114,
      "ull": 1115,
      "▁helped": 1116,
      "▁realized": 1117,
      "▁butterf": 1118,
      "▁saf": 1119,
      "▁Mommy": 1120,
      "ast": 1121,
      "arent": 1122,
      "▁nodded": 1123,
      "▁fire": 1124,
      "leep": 1125,
      "▁flo": 1126,
      "▁sky": 1127,
      "▁sweet": 1128,
      "▁beh": 1129,
      "ry,": 1130,
      "▁stop": 1131,
      "▁pat": 1132,
      "ers": 1133,
      "ally,": 1134,
      "▁ate": 1135,
      "▁reached": 1136,
      "▁sand": 1137,
      "▁underst": 1138,
      "▁dr": 1139,
      "▁pap": 1140,
      "▁parent": 1141,
      "▁tri": 1142,
      "▁Do": 1143,
      "▁\"Thank": 1144,
      "▁up.": 1145,
      "▁cre": 1146,
      "▁sees": 1147,
      "'re": 1148,
      "▁garden.": 1149,
      "▁began": 1150,
      "▁having": 1151,
      "▁As": 1152,
      "ather": 1153,
      "▁mon": 1154,
      "▁home,": 1155,
      "▁jumped": 1156,
      "ass": 1157,
      "▁\"Let's": 1158,
      "▁magic": 1159,
      "▁friend.": 1160,
      "▁Can": 1161,
      "▁\"We": 1162,
      "▁other.": 1163,
      "▁pond": 1164,
      "▁us": 1165,
      "▁looks": 1166,
      "ais": 1167,
      "▁favor": 1168,
      "▁play.": 1169,
      "ch.": 1170,
      "▁himself": 1171,
      "▁fro": 1172,
      "▁used": 1173,
      "ent.": 1174,
      "sh": 1175,
      "▁less": 1176,
      "▁ple": 1177,
      "▁rest": 1178,
      "▁goodbye": 1179,
      "▁sky.": 1180,
      "▁through": 1181,
      "▁hat": 1182,
      ".\n\nM": 1183,
      "▁\"I'm": 1184,
      "▁making": 1185,
      "▁really": 1186,
      "▁soft": 1187,
      "ange": 1188,
      "▁\"H": 1189,
      "▁ba": 1190,
      "▁pretend": 1191,
      "▁Everyone": 1192,
      "where": 1193,
      "▁prin": 1194,
      "▁delic": 1195,
      "▁lady": 1196,
      "▁help.": 1197,
      "▁bed": 1198,
      "▁noise": 1199,
      "▁pus": 1200,
      "▁work": 1201,
      "▁favorite": 1202,
      "ul": 1203,
      "▁So": 1204,
      "bo": 1205,
      "▁smile": 1206,
      "ation": 1207,
      "▁ste": 1208,
      "▁outside.": 1209,
      "▁idea.": 1210,
      "▁smell": 1211,
      "▁part": 1212,
      "▁cut": 1213,
      "▁bunny": 1214,
      "▁prom": 1215,
      "▁fix": 1216,
      "▁touch": 1217,
      "▁swing": 1218,
      "▁cool": 1219,
      "hy": 1220,
      "t.": 1221,
      "ered": 1222,
      "▁Sue": 1223,
      "▁top": 1224,
      "▁angry": 1225,
      "iver": 1226,
      "▁world": 1227,
      "▁dri": 1228,
      "▁story": 1229,
      "ning": 1230,
      "aEUR\n\n": 1231,
      "▁hair": 1232,
      ".\n\nHe": 1233,
      "illed": 1234,
      "ce.": 1235,
      "▁waved": 1236,
      "▁sing": 1237,
      "▁eyes": 1238,
      "▁why": 1239,
      "ook,": 1240,
      "Mommy": 1241,
      "▁inside.": 1242,
      "▁voice": 1243,
      "age": 1244,
      "▁spot": 1245,
      "▁thank": 1246,
      "ide,": 1247,
      "▁worked": 1248,
      "▁agre": 1249,
      "▁Sarah": 1250,
      "▁store": 1251,
      "▁tast": 1252,
      "▁tir": 1253,
      "▁hopped": 1254,
      "▁light": 1255,
      "▁can't": 1256,
      "▁Let's": 1257,
      "uff": 1258,
      "▁replied,": 1259,
      "▁star": 1260,
      "▁another": 1261,
      "▁It's": 1262,
      "app": 1263,
      "se.": 1264,
      "▁bag": 1265,
      "▁back.": 1266,
      "▁\n\nLily": 1267,
      "▁years": 1268,
      "▁Jane": 1269,
      "▁sorry.": 1270,
      "▁\"What": 1271,
      "▁hands": 1272,
      "▁\n": 1273,
      "▁behind": 1274,
      "▁farm": 1275,
      "▁cake": 1276,
      "▁sat": 1277,
      "▁yummy": 1278,
      "▁wished": 1279,
      "▁ground.": 1280,
      "▁wood": 1281,
      "▁carefu": 1282,
      "▁anything": 1283,
      "▁Joe": 1284,
      "▁water.": 1285,
      "▁perf": 1286,
      "▁fair": 1287,
      "▁lost": 1288,
      ".\n\nShe": 1289,
      "ign": 1290,
      "▁hold": 1291,
      "ued": 1292,
      "▁mat": 1293,
      "▁So,": 1294,
      "▁floor": 1295,
      "▁dark": 1296,
      "▁catch": 1297,
      "▁happily": 1298,
      "▁swim": 1299,
      "▁dro": 1300,
      "▁gi": 1301,
      "▁car.": 1302,
      "▁place": 1303,
      "▁gam": 1304,
      "▁dress": 1305,
      "▁frog": 1306,
      "▁Tom.": 1307,
      "aEURTMs": 1308,
      "▁air": 1309,
      "▁full": 1310,
      "▁cra": 1311,
      "▁let's": 1312,
      "▁green": 1313,
      "▁enjoyed": 1314,
      ".\n\nTom": 1315,
      "▁-": 1316,
      "▁better.": 1317,
      "▁dream": 1318,
      "▁\"No,": 1319,
      "▁Timmy's": 1320,
      "▁cold": 1321,
      "aught": 1322,
      "▁\"S": 1323,
      "akes": 1324,
      "▁likes": 1325,
      "▁time.": 1326,
      "▁set": 1327,
      "▁angry.": 1328,
      "▁remembered": 1329,
      "▁hid": 1330,
      "▁while": 1331,
      "▁Ben.": 1332,
      "▁coming": 1333,
      "ance": 1334,
      "ster": 1335,
      "▁excited.": 1336,
      "▁understand": 1337,
      "▁arri": 1338,
      ".\n\nSuddenly,": 1339,
      "▁dog.": 1340,
      "▁closer": 1341,
      "▁wrong": 1342,
      "▁pi": 1343,
      "▁wear": 1344,
      "▁contin": 1345,
      "uit": 1346,
      "▁bat": 1347,
      "rel": 1348,
      "▁cand": 1349,
      "ard.": 1350,
      "▁\"It's": 1351,
      "▁bug": 1352,
      "▁do.": 1353,
      "▁held": 1354,
      "▁hill": 1355,
      "▁seen": 1356,
      "▁In": 1357,
      "ble.": 1358,
      "▁friend,": 1359,
      "ient": 1360,
      "▁sorry,": 1361,
      "ren": 1362,
      "▁el": 1363,
      "▁birds": 1364,
      "▁wonderful": 1365,
      "▁bow": 1366,
      "▁asked,": 1367,
      "ary": 1368,
      "▁Lila": 1369,
      "▁buy": 1370,
      "imes": 1371,
      "▁left": 1372,
      "▁finished": 1373,
      "▁ready": 1374,
      "aisy": 1375,
      "ken": 1376,
      "▁\n\nJ": 1377,
      "▁flowers": 1378,
      "Timmy": 1379,
      "▁parents": 1380,
      "▁There": 1381,
      "▁hung": 1382,
      "▁slide": 1383,
      "▁followed": 1384,
      "room": 1385,
      "▁herself": 1386,
      "▁\"M": 1387,
      "▁arrived": 1388,
      "▁anymore.": 1389,
      "ross": 1390,
      "▁name": 1391,
      "▁count": 1392,
      "▁needed": 1393,
      "▁sleep": 1394,
      "▁build": 1395,
      "▁forgot": 1396,
      "▁tall": 1397,
      "av": 1398,
      "eddy": 1399,
      "▁plac": 1400,
      "sp": 1401,
      "▁rel": 1402,
      "▁\n\nOne": 1403,
      "▁dinn": 1404,
      "▁slow": 1405,
      "olly": 1406,
      "▁arm": 1407,
      "▁K": 1408,
      "▁ice": 1409,
      "▁able": 1410,
      "▁plan": 1411,
      "▁mom,": 1412,
      "▁That": 1413,
      "▁hot": 1414,
      "lf": 1415,
      "▁continued": 1416,
      "▁dir": 1417,
      "▁mouse": 1418,
      "▁pink": 1419,
      "▁doing": 1420,
      ".\n\n\"O": 1421,
      "▁sho": 1422,
      "▁running": 1423,
      "▁carefully": 1424,
      ".\"\n\nLily": 1425,
      "▁might": 1426,
      "▁yellow": 1427,
      "▁\"Don't": 1428,
      "▁funny": 1429,
      "▁children": 1430,
      "▁After": 1431,
      "ss.": 1432,
      "▁girl.": 1433,
      "▁stayed": 1434,
      "▁tight": 1435,
      "▁bigg": 1436,
      "amp": 1437,
      "▁wall": 1438,
      "inally,": 1439,
      "▁filled": 1440,
      "▁gent": 1441,
      "▁snow": 1442,
      "▁curious": 1443,
      "▁Maybe": 1444,
      "▁Em": 1445,
      "▁surpris": 1446,
      "ph": 1447,
      "▁me.": 1448,
      "man": 1449,
      "▁down.": 1450,
      "▁butterfly": 1451,
      "▁mess": 1452,
      "▁stre": 1453,
      "▁mus": 1454,
      "▁grandma": 1455,
      "▁bi": 1456,
      "▁poin": 1457,
      "'ll": 1458,
      "ards": 1459,
      "▁enough": 1460,
      "▁fur": 1461,
      "zy": 1462,
      "▁noise.": 1463,
      "▁wants": 1464,
      "▁danc": 1465,
      "▁whil": 1466,
      "com": 1467,
      "▁cast": 1468,
      "ield": 1469,
      "From": 1470,
      "isit": 1471,
      "▁climbed": 1472,
      "▁lat": 1473,
      "▁around.": 1474,
      "▁box.": 1475,
      "▁\n\n\"": 1476,
      "▁visit": 1477,
      "▁perfect": 1478,
      "▁mar": 1479,
      "▁cri": 1480,
      "asure": 1481,
      "▁fight": 1482,
      "irrel": 1483,
      "▁mother": 1484,
      ".\"\n\nThe": 1485,
      "anger": 1486,
      "wl": 1487,
      "▁join": 1488,
      "▁face": 1489,
      "▁safe.": 1490,
      "oup": 1491,
      "▁Tommy": 1492,
      "▁beach": 1493,
      "▁turned": 1494,
      "▁break": 1495,
      "▁music": 1496,
      "▁comp": 1497,
      "▁creat": 1498,
      "▁song": 1499,
      "His": 1500,
      "▁getting": 1501,
      "oral": 1502,
      "▁ju": 1503,
      "▁away,": 1504,
      "▁This": 1505,
      "▁squirrel": 1506,
      "▁bird.": 1507,
      "▁Gra": 1508,
      "▁morn": 1509,
      "▁paper": 1510,
      "ine.": 1511,
      "ess.": 1512,
      "▁few": 1513,
      ".\n\nMom": 1514,
      "▁fall": 1515,
      "▁met": 1516,
      "▁finally": 1517,
      "▁delicious": 1518,
      "ppy": 1519,
      "▁spark": 1520,
      "▁tail": 1521,
      "ich": 1522,
      "oom": 1523,
      "itten": 1524,
      "side,": 1525,
      "▁O": 1526,
      "▁toy.": 1527,
      "ask": 1528,
      "▁everything": 1529,
      "▁friendly": 1530,
      "▁ball.": 1531,
      "▁makes": 1532,
      "ott": 1533,
      ".\n\n\"H": 1534,
      "▁word": 1535,
      "▁\"Can": 1536,
      "▁lion": 1537,
      "▁idea": 1538,
      "rot": 1539,
      "orm": 1540,
      "▁Billy": 1541,
      "▁someone": 1542,
      "▁friends,": 1543,
      "▁What": 1544,
      "\".": 1545,
      "in.": 1546,
      "▁piec": 1547,
      "▁listened": 1548,
      ".\n\nL": 1549,
      "▁Then,": 1550,
      "▁shap": 1551,
      "▁happened.": 1552,
      "▁bor": 1553,
      "▁pol": 1554,
      "▁sit": 1555,
      "▁clot": 1556,
      "▁Daisy": 1557,
      "▁cream": 1558,
      "▁brought": 1559,
      "ies.": 1560,
      "▁Sally": 1561,
      "▁surprised": 1562,
      "red": 1563,
      "▁\"That's": 1564,
      "?\"\n\nThe": 1565,
      "▁fre": 1566,
      "▁worry,": 1567,
      "▁hole": 1568,
      "▁pulled": 1569,
      "▁towards": 1570,
      "▁deep": 1571,
      "!\"\n\nThe": 1572,
      "▁kids": 1573,
      "cess": 1574,
      "▁living": 1575,
      "▁wasn't": 1576,
      "▁moral": 1577,
      "ings": 1578,
      "▁game": 1579,
      "▁cried": 1580,
      "ugg": 1581,
      "uddenly": 1582,
      "▁sear": 1583,
      ".\n\n\"S": 1584,
      "▁must": 1585,
      ".\n\nAs": 1586,
      "▁trying": 1587,
      "▁\n\nWhen": 1588,
      "▁close": 1589,
      "ama": 1590,
      "▁Jen": 1591,
      "▁treat": 1592,
      ".\n\nAfter": 1593,
      "▁broken": 1594,
      "▁white": 1595,
      "▁cloud": 1596,
      "zz": 1597,
      ".\n\n\"T": 1598,
      "ash": 1599,
      "▁cars": 1600,
      "ty.": 1601,
      "▁Benny": 1602,
      "ful.": 1603,
      "▁land": 1604,
      "▁pet": 1605,
      "ello,": 1606,
      "▁while,": 1607,
      "▁runs": 1608,
      "ister": 1609,
      "▁pa": 1610,
      "▁shared": 1611,
      "▁talk": 1612,
      "oney": 1613,
      "▁window": 1614,
      "▁fox": 1615,
      "▁dad.": 1616,
      "▁explor": 1617,
      "ever": 1618,
      "eter": 1619,
      "gg": 1620,
      "h,": 1621,
      "▁gif": 1622,
      "leph": 1623,
      "▁out.": 1624,
      "▁Jim": 1625,
      "▁danger": 1626,
      "ee": 1627,
      "▁bott": 1628,
      "ins": 1629,
      ".\"\n\nS": 1630,
      "sw": 1631,
      "ad.": 1632,
      "▁door.": 1633,
      "▁amazing": 1634,
      "▁nice.": 1635,
      "▁All": 1636,
      "ctor": 1637,
      "▁grate": 1638,
      "▁move": 1639,
      "▁belie": 1640,
      "▁hide": 1641,
      "▁em": 1642,
      "▁answ": 1643,
      "▁forest.": 1644,
      "▁reach": 1645,
      "ipped": 1646,
      "▁most": 1647,
      "▁blocks": 1648,
      "▁att": 1649,
      "▁pie": 1650,
      "▁teac": 1651,
      "▁explain": 1652,
      "▁please": 1653,
      "apped": 1654,
      "▁sometimes": 1655,
      "▁cup": 1656,
      "ne": 1657,
      "ol": 1658,
      "▁such": 1659,
      "▁job": 1660,
      "▁roll": 1661,
      "▁treasure": 1662,
      "▁promised": 1663,
      "▁scream": 1664,
      "fort": 1665,
      "▁spl": 1666,
      "▁colors": 1667,
      "▁moment": 1668,
      ".\n\n\"Look,": 1669,
      "▁sail": 1670,
      "▁face.": 1671,
      "▁qui": 1672,
      "▁thinks": 1673,
      "ire": 1674,
      "▁smart": 1675,
      "Anna": 1676,
      "one,": 1677,
      "▁Max.": 1678,
      "▁paint": 1679,
      "▁chair": 1680,
      "▁pot": 1681,
      "▁river": 1682,
      "▁pictures": 1683,
      "▁magical": 1684,
      "o.": 1685,
      "up": 1686,
      "▁pen": 1687,
      "▁say,": 1688,
      "▁done": 1689,
      "ined": 1690,
      "▁wet": 1691,
      "▁snack": 1692,
      "med": 1693,
      ".\n\nBen": 1694,
      ".\"\n\nThey": 1695,
      "rat": 1696,
      "▁wel": 1697,
      "▁cho": 1698,
      "▁grow": 1699,
      "▁balloon": 1700,
      "▁Amy": 1701,
      "▁boy.": 1702,
      "▁Lily,": 1703,
      "row": 1704,
      "▁gu": 1705,
      "▁ride": 1706,
      "▁smile.": 1707,
      "▁park,": 1708,
      "▁Jill": 1709,
      "▁shouted": 1710,
      "▁cookies": 1711,
      "▁across": 1712,
      "▁teacher": 1713,
      "▁cray": 1714,
      "ie.": 1715,
      "ar.": 1716,
      "▁surprise": 1717,
      "▁up,": 1718,
      "▁brown": 1719,
      "▁Fl": 1720,
      "ue.": 1721,
      "▁threw": 1722,
      "▁colorful": 1723,
      "▁flying": 1724,
      "▁min": 1725,
      "ely": 1726,
      "▁Mom.": 1727,
      "▁laugh": 1728,
      "▁hig": 1729,
      "▁Tim.": 1730,
      "▁around,": 1731,
      "▁plant": 1732,
      "▁sister": 1733,
      "▁field": 1734,
      "▁lesson": 1735,
      "▁leave": 1736,
      "▁disapp": 1737,
      "▁baby": 1738,
      "▁tired": 1739,
      "▁To": 1740,
      "▁sam": 1741,
      "chool": 1742,
      "alth": 1743,
      "ours": 1744,
      "▁drag": 1745,
      "ny.": 1746,
      "▁heav": 1747,
      "▁slowly": 1748,
      "▁mout": 1749,
      "▁je": 1750,
      "os": 1751,
      "▁school": 1752,
      "▁blank": 1753,
      "▁scared,": 1754,
      "ix": 1755,
      "▁heart": 1756,
      "e,\"": 1757,
      "▁carrot": 1758,
      "!aEUR": 1759,
      "igg": 1760,
      "▁before.": 1761,
      "▁kitchen.": 1762,
      "▁animals.": 1763,
      "▁family.": 1764,
      "▁agreed": 1765,
      "▁sec": 1766,
      "▁sad,": 1767,
      "lephant": 1768,
      "▁cry.": 1769,
      ".\n\nThen": 1770,
      "!\n\nThe": 1771,
      "▁Now": 1772,
      "▁stepped": 1773,
      "▁pro": 1774,
      "▁waited": 1775,
      "▁okay,": 1776,
      "cle": 1777,
      "▁\"That": 1778,
      "ased": 1779,
      "▁careful.": 1780,
      "▁apple": 1781,
      "der": 1782,
      "▁pers": 1783,
      "▁stuck": 1784,
      "icy": 1785,
      "▁bowl": 1786,
      "▁\"This": 1787,
      "▁elephant": 1788,
      "▁crayon": 1789,
      "▁bar": 1790,
      "▁night,": 1791,
      "▁\n\nM": 1792,
      "▁hug.": 1793,
      "▁everywhere": 1794,
      "▁slide.": 1795,
      "▁wouldn't": 1796,
      "▁broke": 1797,
      "▁head.": 1798,
      "ventu": 1799,
      "▁nodded.": 1800,
      "▁throw": 1801,
      "ere": 1802,
      "▁nap": 1803,
      "▁grass": 1804,
      "▁teddy": 1805,
      "▁helping": 1806,
      "▁much.": 1807,
      "▁higher": 1808,
      "▁bask": 1809,
      "kay,": 1810,
      "vel": 1811,
      "▁there.": 1812,
      "▁bed.": 1813,
      "ucky": 1814,
      "▁adventure.": 1815,
      "▁books": 1816,
      "ract": 1817,
      "▁believe": 1818,
      "▁farmer": 1819,
      "▁asks": 1820,
      "▁owl": 1821,
      "▁Grandma": 1822,
      "▁without": 1823,
      "key": 1824,
      "▁bigger": 1825,
      "▁was.": 1826,
      "?\"\n\n\"": 1827,
      "ward": 1828,
      "▁corn": 1829,
      "ord": 1830,
      "▁pushed": 1831,
      "▁ear": 1832,
      "▁\"But": 1833,
      "▁stand": 1834,
      "▁black": 1835,
      "▁spr": 1836,
      "▁special.": 1837,
      "K,": 1838,
      "al.": 1839,
      "▁trees": 1840,
      "▁hand.": 1841,
      "▁hoped": 1842,
      "▁same": 1843,
      "Mom,": 1844,
      "ming": 1845,
      "▁sign": 1846,
      "▁too,": 1847,
      "▁hit": 1848,
      "s.\"\n\n": 1849,
      "▁daddy": 1850,
      "▁food.": 1851,
      "ipp": 1852,
      "▁town": 1853,
      "▁there,": 1854,
      "▁trou": 1855,
      "▁piece": 1856,
      "▁grateful": 1857,
      "ure,": 1858,
      "▁scary": 1859,
      "▁strange": 1860,
      "iny": 1861,
      "▁mix": 1862,
      "▁feels": 1863,
      "ub": 1864,
      "▁drove": 1865,
      "▁wag": 1866,
      "▁miss": 1867,
      "ling": 1868,
      "▁bad.": 1869,
      "▁fairy": 1870,
      "▁asked.": 1871,
      "?\"\n\nLily": 1872,
      "▁purp": 1873,
      "▁train": 1874,
      "▁pack": 1875,
      "▁today": 1876,
      "hes.": 1877,
      "▁him,": 1878,
      ".\n\n\"Let's": 1879,
      "Mommy,": 1880,
      "It": 1881,
      "▁young": 1882,
      "▁mail": 1883,
      "▁hands.": 1884,
      "▁fruit": 1885,
      "issed": 1886,
      "▁neck": 1887,
      "▁amazed": 1888,
      "▁pock": 1889,
      "▁act": 1890,
      "et,": 1891,
      "▁inst": 1892,
      "▁floor.": 1893,
      "▁welcom": 1894,
      "▁ups": 1895,
      "uffy": 1896,
      "▁es": 1897,
      "▁well": 1898,
      "▁bear.": 1899,
      "▁forget": 1900,
      "▁smo": 1901,
      "▁man.": 1902,
      "age.": 1903,
      "▁past": 1904,
      "▁hugs": 1905,
      "▁mark": 1906,
      "▁moved": 1907,
      "▁butt": 1908,
      "▁fast.": 1909,
      "ves.": 1910,
      "▁puppy": 1911,
      "itting": 1912,
      "▁doctor": 1913,
      "▁jour": 1914,
      "▁3": 1915,
      "▁ben": 1916,
      "ater": 1917,
      "▁coll": 1918,
      "ident": 1919,
      "▁castle": 1920,
      "▁fen": 1921,
      "▁nest": 1922,
      "ho": 1923,
      "▁snowman": 1924,
      "▁side": 1925,
      "▁along": 1926,
      "▁happened": 1927,
      "ress": 1928,
      "▁daught": 1929,
      "ret": 1930,
      ".\n\nTim": 1931,
      "▁happy,": 1932,
      "andy": 1933,
      "▁else": 1934,
      "oon,": 1935,
      "▁Daddy": 1936,
      "▁monster": 1937,
      "▁Molly": 1938,
      "▁ant": 1939,
      "▁wise": 1940,
      "▁inv": 1941,
      "per": 1942,
      "▁closed": 1943,
      "▁soup": 1944,
      "▁whe": 1945,
      "▁lun": 1946,
      "▁acc": 1947,
      "▁buck": 1948,
      "▁shook": 1949,
      "▁one.": 1950,
      "▁leaves": 1951,
      "▁lon": 1952,
      "▁leg": 1953,
      "▁grass.": 1954,
      "▁owner": 1955,
      "▁neigh": 1956,
      "▁Ben,": 1957,
      "▁wrong.": 1958,
      "▁backy": 1959,
      "umb": 1960,
      "▁\"Why": 1961,
      "▁relie": 1962,
      "▁her,": 1963,
      "▁\n\nBut": 1964,
      "▁clapped": 1965,
      "▁wish": 1966,
      "▁shop": 1967,
      "▁resp": 1968,
      "▁neighb": 1969,
      "▁tiny": 1970,
      "▁bring": 1971,
      "▁swam": 1972,
      "▁Sam.": 1973,
      "▁pond.": 1974,
      "▁Mr": 1975,
      "ion.": 1976,
      "mor": 1977,
      "▁table": 1978,
      "▁hor": 1979,
      "▁belong": 1980,
      "▁ve": 1981,
      "▁though": 1982,
      "▁\"The": 1983,
      "▁nothing": 1984,
      "▁rainb": 1985,
      "cked": 1986,
      "▁together,": 1987,
      ".\n\n\"M": 1988,
      "thday": 1989,
      "▁naught": 1990,
      "▁it!": 1991,
      "▁ph": 1992,
      "▁longer": 1993,
      ".\n\nHer": 1994,
      "ive.": 1995,
      "▁Thank": 1996,
      "▁that's": 1997,
      "▁bran": 1998,
      "▁it.\"\n\n": 1999,
      "▁cheer": 2000,
      "▁flowers.": 2001,
      ".\n\n\"No,": 2002,
      "▁bike": 2003,
      "▁purple": 2004,
      "▁dance": 2005,
      ".\"\n\n\"": 2006,
      "▁forever": 2007,
      "f.": 2008,
      "▁caught": 2009,
      "▁Anna.": 2010,
      "▁dropped": 2011,
      "▁ob": 2012,
      "▁said:": 2013,
      "unt": 2014,
      "ope": 2015,
      "▁smiled,": 2016,
      "▁brave.": 2017,
      "▁accident": 2018,
      "dy.": 2019,
      "▁dist": 2020,
      "▁whist": 2021,
      "▁good.": 2022,
      "Finally,": 2023,
      "m.": 2024,
      "▁lad": 2025,
      "▁des": 2026,
      "▁mil": 2027,
      "▁work.": 2028,
      "▁grab": 2029,
      "▁more.": 2030,
      ".\n\n\"Wow,": 2031,
      "▁dragon": 2032,
      "▁taking": 2033,
      "▁driver": 2034,
      "▁\n\nSuddenly,": 2035,
      "to": 2036,
      "▁birthday": 2037,
      "▁cover": 2038,
      "▁replied": 2039,
      "▁power": 2040,
      "▁lift": 2041,
      "▁spoon": 2042,
      "▁toys,": 2043,
      "ek": 2044,
      "▁grand": 2045,
      "▁eas": 2046,
      "▁seemed": 2047,
      "▁tower": 2048,
      "▁cir": 2049,
      "▁meet": 2050,
      "▁holding": 2051,
      "▁pieces": 2052,
      "og": 2053,
      "▁stu": 2054,
      "▁I'll": 2055,
      "▁nod": 2056,
      ".\n\nAt": 2057,
      "▁lesson.": 2058,
      "bble": 2059,
      "at.": 2060,
      "▁smiles": 2061,
      "▁monkey": 2062,
      "▁relieved": 2063,
      "▁sitting": 2064,
      "▁drink": 2065,
      "▁quiet": 2066,
      "▁you.\"": 2067,
      "▁go.": 2068,
      "▁knock": 2069,
      "▁clothes": 2070,
      "▁\"G": 2071,
      "▁joy": 2072,
      "▁takes": 2073,
      ".\n\nSara": 2074,
      "▁bite": 2075,
      "!\"\n\nS": 2076,
      "▁sang": 2077,
      "▁\"N": 2078,
      "▁listen.": 2079,
      "▁candy": 2080,
      "▁\"A": 2081,
      "▁mommy.": 2082,
      "ail": 2083,
      "▁hard.": 2084,
      "▁fit": 2085,
      ".\n\n\"Can": 2086,
      "▁chees": 2087,
      "▁win": 2088,
      "lease": 2089,
      "▁worried": 2090,
      "▁lake": 2091,
      "omet": 2092,
      "ace.": 2093,
      "▁sunsh": 2094,
      "▁cou": 2095,
      "an.": 2096,
      "▁disco": 2097,
      "▁princess": 2098,
      "ead": 2099,
      "▁gone": 2100,
      "▁inc": 2101,
      "▁Mary": 2102,
      "▁table.": 2103,
      "▁touc": 2104,
      "▁bee": 2105,
      "▁turns": 2106,
      "▁button": 2107,
      "▁af": 2108,
      "ins.": 2109,
      "▁round": 2110,
      "▁spo": 2111,
      "▁imag": 2112,
      "▁eyes.": 2113,
      "▁race": 2114,
      "col": 2115,
      "▁sharp": 2116,
      "ountain": 2117,
      "▁gentle": 2118,
      "▁Tw": 2119,
      "ets": 2120,
      "Lily,": 2121,
      "▁fing": 2122,
      "▁mist": 2123,
      "▁onto": 2124,
      "▁jar": 2125,
      "▁hungry": 2126,
      "▁add": 2127,
      "▁hell": 2128,
      "▁yes": 2129,
      "▁Emma": 2130,
      "▁explained": 2131,
      "▁journe": 2132,
      "▁pop": 2133,
      "umber": 2134,
      "▁Ell": 2135,
      "▁woke": 2136,
      "▁appear": 2137,
      "de": 2138,
      "▁\n\nHe": 2139,
      "▁again,": 2140,
      "▁laughing": 2141,
      ".\n\nAnna": 2142,
      "▁\n\nAfter": 2143,
      "▁money": 2144,
      "▁wondered": 2145,
      "▁adm": 2146,
      "aur": 2147,
      "▁won't": 2148,
      "▁shell": 2149,
      "▁silly": 2150,
      "▁bought": 2151,
      "▁\"Y": 2152,
      "▁comfort": 2153,
      "▁eating": 2154,
      "▁hon": 2155,
      "▁puts": 2156,
      "izz": 2157,
      "▁talked": 2158,
      ".\n\nB": 2159,
      "raid": 2160,
      "▁pointed": 2161,
      "i,": 2162,
      "erest": 2163,
      "▁touched": 2164,
      "ier": 2165,
      "oun": 2166,
      "ush": 2167,
      "▁interest": 2168,
      "▁curious.": 2169,
      "▁afraid": 2170,
      ".\n\n\"Yes,": 2171,
      "aEURoe": 2172,
      "▁comes": 2173,
      "▁morning,": 2174,
      "althy": 2175,
      "▁sandw": 2176,
      "▁sick": 2177,
      "▁Finally,": 2178,
      "▁Come": 2179,
      "▁dinner.": 2180,
      "▁res": 2181,
      "▁ret": 2182,
      "▁wra": 2183,
      "▁in.": 2184,
      "!\"\n\n\"": 2185,
      "▁watching": 2186,
      "▁basket": 2187,
      "EURTM": 2188,
      "bby": 2189,
      "▁gives": 2190,
      "▁pres": 2191,
      "ible": 2192,
      "▁bark": 2193,
      "▁way.": 2194,
      "▁excited!": 2195,
      "▁said.\n\nThey": 2196,
      "▁happy!": 2197,
      "s,\"": 2198,
      "▁hurt.": 2199,
      "▁house,": 2200,
      "naEURTM": 2201,
      "▁faster": 2202,
      "▁Re": 2203,
      "▁hope": 2204,
      "▁game.": 2205,
      "▁Emily": 2206,
      "▁accidentally": 2207,
      "▁with.": 2208,
      "▁blocks.": 2209,
      "▁pill": 2210,
      "▁mach": 2211,
      "▁mess.": 2212,
      "epend": 2213,
      "▁\"Okay,": 2214,
      ".\n\nTimmy": 2215,
      "▁Le": 2216,
      "▁sunny": 2217,
      "▁spotted": 2218,
      "▁carry": 2219,
      "▁return": 2220,
      "ts": 2221,
      "▁pig": 2222,
      "▁\"Mommy,": 2223,
      "▁matter": 2224,
      "▁wheel": 2225,
      "▁cow": 2226,
      "▁cake.": 2227,
      "▁bath": 2228,
      "isa": 2229,
      ".\"\n\nTom": 2230,
      "▁long.": 2231,
      "▁band": 2232,
      "ers.": 2233,
      ".\n\nSo": 2234,
      "ge.": 2235,
      "ate.": 2236,
      "▁mom's": 2237,
      "naEURTMt": 2238,
      "▁laughed.": 2239,
      ".\n\n\"What": 2240,
      "eez": 2241,
      "▁mouth": 2242,
      "round": 2243,
      "▁card": 2244,
      "▁king": 2245,
      "\"\n\nLily": 2246,
      "▁place.": 2247,
      "▁late.": 2248,
      "▁ap": 2249,
      "less": 2250,
      "▁pretty.": 2251,
      "▁voice.": 2252,
      "▁dinner": 2253,
      "▁explore.": 2254,
      "▁par": 2255,
      "▁pudd": 2256,
      "▁\n\nHer": 2257,
      "▁daughter": 2258,
      "▁suc": 2259,
      "▁pract": 2260,
      "▁person": 2261,
      "▁cal": 2262,
      "▁egg": 2263,
      "▁peace": 2264,
      "ucy": 2265,
      "▁ce": 2266,
      "▁sun.": 2267,
      "▁book.": 2268,
      "▁suddenly": 2269,
      "itch": 2270,
      "▁zoom": 2271,
      "ball": 2272,
      "ied": 2273,
      "▁With": 2274,
      "▁cheered": 2275,
      "▁stories": 2276,
      "▁soon.": 2277,
      "▁dry": 2278,
      "▁crying": 2279,
      "▁\"Do": 2280,
      "pe": 2281,
      "▁har": 2282,
      "▁done,": 2283,
      "▁gather": 2284,
      ".\n\nFrom": 2285,
      "▁Sammy": 2286,
      "!\"\n\nThey": 2287,
      "▁boun": 2288,
      "▁cat.": 2289,
      "▁orange": 2290,
      "▁heavy": 2291,
      "▁gigg": 2292,
      "▁exploring": 2293,
      "ower.": 2294,
      "▁okay.": 2295,
      "▁loves": 2296,
      "▁\"Wow,": 2297,
      "▁teach": 2298,
      "▁wings": 2299,
      "read": 2300,
      "▁no,": 2301,
      "▁free": 2302,
      "▁searched": 2303,
      "▁minut": 2304,
      "▁back,": 2305,
      "▁swimming": 2306,
      "ten": 2307,
      "▁Jo": 2308,
      "▁truck.": 2309,
      "▁anymore": 2310,
      "▁right.": 2311,
      "▁bottle": 2312,
      "p.": 2313,
      "▁letter": 2314,
      "▁fun,": 2315,
      "▁prot": 2316,
      "▁exciting": 2317,
      "▁val": 2318,
      "▁aEURoeI": 2319,
      "▁blanket": 2320,
      "▁respect": 2321,
      "▁discover": 2322,
      "▁fron": 2323,
      "▁hill.": 2324,
      "▁Somet": 2325,
      "let": 2326,
      "▁creature": 2327,
      "br": 2328,
      "ped": 2329,
      "▁else.": 2330,
      "▁Jimmy": 2331,
      "▁That's": 2332,
      ".\n\n\"It": 2333,
      "▁singing": 2334,
      "▁St": 2335,
      "▁\"B": 2336,
      "oney.": 2337,
      "▁huge": 2338,
      "ake.": 2339,
      "▁ent": 2340,
      "▁wip": 2341,
      "▁kick": 2342,
      "▁feather": 2343,
      "▁doll.": 2344,
      "▁\"Maybe": 2345,
      "▁which": 2346,
      "▁playing,": 2347,
      "▁kind.": 2348,
      "▁puzz": 2349,
      "▁smelled": 2350,
      "▁collect": 2351,
      "eb": 2352,
      "▁oce": 2353,
      "▁eag": 2354,
      "▁on.": 2355,
      "▁storm": 2356,
      "aEUR\n\nThe": 2357,
      "▁Mr.": 2358,
      "▁protect": 2359,
      "▁key": 2360,
      "▁breat": 2361,
      "▁proble": 2362,
      "▁neighbor": 2363,
      "▁Mama": 2364,
      "▁shouted,": 2365,
      "▁spread": 2366,
      "▁confu": 2367,
      "▁Tom,": 2368,
      "▁sur": 2369,
      "▁pour": 2370,
      "▁others": 2371,
      "▁vill": 2372,
      "▁sounds": 2373,
      "▁busy": 2374,
      "▁beach.": 2375,
      "▁whole": 2376,
      "▁organ": 2377,
      "▁zoo": 2378,
      "upp": 2379,
      "▁tear": 2380,
      "▁di": 2381,
      "▁\n\nFrom": 2382,
      "▁patient": 2383,
      "ade": 2384,
      "▁help,": 2385,
      "▁eat.": 2386,
      "▁cried.": 2387,
      "▁pass": 2388,
      "\"\n\nThe": 2389,
      "▁fac": 2390,
      "▁secret": 2391,
      "▁tun": 2392,
      "▁self": 2393,
      "▁sal": 2394,
      "ight.": 2395,
      "▁alone": 2396,
      "▁brid": 2397,
      "▁front": 2398,
      "Come": 2399,
      "▁it!\"": 2400,
      "▁it?\"": 2401,
      "▁slid": 2402,
      "▁words": 2403,
      "▁oven": 2404,
      "▁colour": 2405,
      "▁first,": 2406,
      "▁eventu": 2407,
      "▁\"He": 2408,
      "oph": 2409,
      "▁rainbow": 2410,
      "▁cart": 2411,
      "▁\"You're": 2412,
      "▁noises": 2413,
      "▁woods.": 2414,
      "▁gift": 2415,
      "▁supp": 2416,
      "▁thin": 2417,
      "▁coat": 2418,
      "▁fold": 2419,
      "▁clever": 2420,
      "ert": 2421,
      ".\n\nT": 2422,
      "les.": 2423,
      "▁How": 2424,
      "▁\"Lily,": 2425,
      "pping": 2426,
      "▁Jack.": 2427,
      "▁\"Look,": 2428,
      "▁Lucy.": 2429,
      "▁himself.": 2430,
      "▁world.": 2431,
      "▁Tweet": 2432,
      "▁honest": 2433,
      "▁ban": 2434,
      "▁splas": 2435,
      "▁naughty": 2436,
      "ose": 2437,
      "▁lucky": 2438,
      "▁tree,": 2439,
      "▁playing.": 2440,
      "▁shoes": 2441,
      "ond": 2442,
      "▁arrived,": 2443,
      "▁wild": 2444,
      "ay.": 2445,
      "owed": 2446,
      "▁last": 2447,
      "▁talking": 2448,
      ".\n\n\"I'm": 2449,
      "ove": 2450,
      "erri": 2451,
      "▁number": 2452,
      "itty": 2453,
      "▁Go": 2454,
      "ina": 2455,
      "▁mind": 2456,
      "ated": 2457,
      "▁sna": 2458,
      ".\n\nE": 2459,
      "▁lock": 2460,
      "▁flag": 2461,
      "pens": 2462,
      "ize": 2463,
      "▁tasted": 2464,
      "▁stir": 2465,
      "▁asleep": 2466,
      "ase,": 2467,
      "▁selfish": 2468,
      "?aEUR": 2469,
      "▁gone.": 2470,
      "▁\n\nTimmy": 2471,
      "▁ash": 2472,
      "▁cam": 2473,
      "▁step": 2474,
      "▁says.\n\nThey": 2475,
      "▁impress": 2476,
      "▁tired.": 2477,
      "▁dirty": 2478,
      "▁mud": 2479,
      "box": 2480,
      "la": 2481,
      "▁wom": 2482,
      "▁store.": 2483,
      "▁outside,": 2484,
      "▁out,": 2485,
      "▁expens": 2486,
      "▁rocks": 2487,
      ".\n\n\"Thank": 2488,
      "▁shelf": 2489,
      "▁shr": 2490,
      "ous,": 2491,
      "▁mountain": 2492,
      "▁dolls": 2493,
      "▁party": 2494,
      "cap": 2495,
      "▁lar": 2496,
      "▁Mum": 2497,
      "▁cours": 2498,
      "▁lay": 2499,
      "▁spent": 2500,
      "▁cann": 2501,
      "▁myster": 2502,
      "▁quest": 2503,
      "▁Now,": 2504,
      "▁finished,": 2505,
      "nic": 2506,
      "▁picnic": 2507,
      "▁spid": 2508,
      "▁fun!": 2509,
      "▁finish": 2510,
      "▁push": 2511,
      "ular": 2512,
      "board": 2513,
      "▁arms": 2514,
      "irt": 2515,
      "ssed": 2516,
      "▁wearing": 2517,
      "▁furry": 2518,
      "▁banan": 2519,
      "nn": 2520,
      "▁coo": 2521,
      "lex": 2522,
      "▁goes": 2523,
      "▁meant": 2524,
      ".\n\nSam": 2525,
      "▁twins.": 2526,
      "▁maybe": 2527,
      "▁sack": 2528,
      ".\n\n\"He": 2529,
      "▁proud.": 2530,
      "▁sound.": 2531,
      ".\n\nJohn": 2532,
      ".\n\n\"Hello,": 2533,
      "▁bal": 2534,
      "▁live": 2535,
      "▁\n\nL": 2536,
      ".\n\nJack": 2537,
      "▁cannot": 2538,
      "ious.": 2539,
      "▁wore": 2540,
      "▁you!\"": 2541,
      "▁that,": 2542,
      "▁Tom's": 2543,
      "▁window.": 2544,
      "▁forgive": 2545,
      "▁hears": 2546,
      "▁alone.": 2547,
      "▁strong.": 2548,
      "▁Fluffy": 2549,
      "▁old.": 2550,
      "▁lovely": 2551,
      "able.": 2552,
      "▁tries": 2553,
      "▁nearby": 2554,
      "▁games": 2555,
      "▁crab": 2556,
      "▁rolled": 2557,
      "▁pool": 2558,
      "▁TV": 2559,
      "▁tool": 2560,
      "▁adventures": 2561,
      "▁bread": 2562,
      "▁giant": 2563,
      "▁ign": 2564,
      "ely.": 2565,
      "▁now.": 2566,
      "▁woods": 2567,
      "▁ser": 2568,
      "▁gen": 2569,
      "▁Al": 2570,
      "▁\"Hello,": 2571,
      "▁disappear": 2572,
      "▁welcome,": 2573,
      "▁kite": 2574,
      "▁down,": 2575,
      "▁teet": 2576,
      "▁answer": 2577,
      "▁neckl": 2578,
      "▁trust": 2579,
      "▁herself.": 2580,
      "▁course,": 2581,
      "a,": 2582,
      "ike": 2583,
      "mo": 2584,
      "oin": 2585,
      "▁bell": 2586,
      "▁jell": 2587,
      "▁move.": 2588,
      "▁upset": 2589,
      "▁dog,": 2590,
      "▁snake": 2591,
      "▁end,": 2592,
      "▁remind": 2593,
      "▁kids.": 2594,
      "In": 2595,
      "▁hungry.": 2596,
      "▁danced": 2597,
      "▁search": 2598,
      "▁present": 2599,
      "▁eager": 2600,
      "▁blew": 2601,
      "▁inside,": 2602,
      "oose": 2603,
      "▁them,": 2604,
      "▁drew": 2605,
      "▁Jenny": 2606,
      "▁cloth": 2607,
      "▁branch": 2608,
      "▁ship": 2609,
      "▁anyone": 2610,
      "▁spoil": 2611,
      "eak": 2612,
      "ighed": 2613,
      "▁Inside": 2614,
      "▁tail.": 2615,
      "▁emb": 2616,
      "▁invit": 2617,
      "▁milk": 2618,
      "▁med": 2619,
      "▁paw": 2620,
      "▁Lisa": 2621,
      "▁decor": 2622,
      "▁hidd": 2623,
      "▁mine": 2624,
      "▁rob": 2625,
      "▁it.\"": 2626,
      "▁excited,": 2627,
      "ance.": 2628,
      "issor": 2629,
      "▁hiding": 2630,
      "▁disappoin": 2631,
      ".\"\n\nBen": 2632,
      "▁shapes": 2633,
      "▁chocol": 2634,
      "▁sour": 2635,
      "▁deter": 2636,
      "▁flower.": 2637,
      "▁foot": 2638,
      "▁\n\nAs": 2639,
      "▁dangerous": 2640,
      "▁pocket": 2641,
      "▁smooth": 2642,
      "▁gener": 2643,
      "aking": 2644,
      "mb": 2645,
      "▁swings": 2646,
      "ittens": 2647,
      "▁wide": 2648,
      "▁others.": 2649,
      "▁air.": 2650,
      "▁lunch": 2651,
      "▁determ": 2652,
      "ello": 2653,
      "▁aEURoeW": 2654,
      "▁promise": 2655,
      "▁Just": 2656,
      "▁no.": 2657,
      "▁whenever": 2658,
      "▁Rex": 2659,
      "▁eventually": 2660,
      "old": 2661,
      "▁tomor": 2662,
      "▁roar": 2663,
      "▁chick": 2664,
      "▁pretended": 2665,
      "ation.": 2666,
      "room.": 2667,
      "▁juice": 2668,
      "or.": 2669,
      "adow": 2670,
      "▁cozy": 2671,
      "▁chased": 2672,
      "▁walk.": 2673,
      "▁shining": 2674,
      "▁me,": 2675,
      "arra": 2676,
      "▁Spot.": 2677,
      "▁cute": 2678,
      "▁cro": 2679,
      "▁stood": 2680,
      "▁gold": 2681,
      "▁scissor": 2682,
      "▁something.": 2683,
      "▁\n\nThey": 2684,
      "▁off.": 2685,
      "▁Pet": 2686,
      "▁after.": 2687,
      "▁drive": 2688,
      "▁stars": 2689,
      "▁morning": 2690,
      "▁empt": 2691,
      "▁bucket": 2692,
      "▁twins": 2693,
      "▁chew": 2694,
      "▁fence": 2695,
      "▁embarra": 2696,
      "Sara": 2697,
      "top": 2698,
      "▁pan": 2699,
      "▁kiss": 2700,
      "▁worm": 2701,
      "▁chest": 2702,
      "▁people.": 2703,
      "▁tasty": 2704,
      ".\n\nThen,": 2705,
      "▁cross": 2706,
      "▁you're": 2707,
      "illy.": 2708,
      "▁bubble": 2709,
      "▁tid": 2710,
      "▁plane": 2711,
      "▁joy.": 2712,
      "▁tells": 2713,
      "hile": 2714,
      "▁hang": 2715,
      "▁Everywhere": 2716,
      "▁stret": 2717,
      "▁instead": 2718,
      "▁nut": 2719,
      ".\n\nHis": 2720,
      "▁jung": 2721,
      "▁worry": 2722,
      "▁me?\"": 2723,
      "▁large": 2724,
      "▁hidden": 2725,
      "mer": 2726,
      "▁hum": 2727,
      "ato": 2728,
      "▁Their": 2729,
      "▁knowing": 2730,
      "▁delight": 2731,
      "sy": 2732,
      "ane.": 2733,
      "▁yard.": 2734,
      "▁stra": 2735,
      "▁Ben's": 2736,
      "▁nose": 2737,
      "▁Mia.": 2738,
      "▁rain.": 2739,
      "▁\"Of": 2740,
      "▁ducks": 2741,
      "▁hello": 2742,
      "▁woman": 2743,
      "ird": 2744,
      "John": 2745,
      "▁forward": 2746,
      "▁seat": 2747,
      "▁thing.": 2748,
      "▁group": 2749,
      "▁won": 2750,
      "▁fil": 2751,
      "▁whis": 2752,
      "▁robot": 2753,
      "▁cour": 2754,
      "arl": 2755,
      "▁lake.": 2756,
      "▁landed": 2757,
      "▁backyard.": 2758,
      "by.": 2759,
      "▁missed": 2760,
      "▁save": 2761,
      "▁did.": 2762,
      "▁knocked": 2763,
      "▁pri": 2764,
      "▁trees.": 2765,
      "▁crown": 2766,
      "▁cold.": 2767,
      "▁screamed": 2768,
      "most": 2769,
      "cks": 2770,
      "▁Little": 2771,
      "▁Don't": 2772,
      "▁books.": 2773,
      "▁\n\nSo": 2774,
      "▁Sara.": 2775,
      "▁rock.": 2776,
      "ult": 2777,
      "▁escap": 2778,
      "▁veget": 2779,
      "▁interesting": 2780,
      "▁calm": 2781,
      "ground": 2782,
      "▁Tim's": 2783,
      "▁almost": 2784,
      "▁grew": 2785,
      "▁spray": 2786,
      "▁admir": 2787,
      "▁gray": 2788,
      "▁barked": 2789,
      "▁question": 2790,
      ".\n\nFinally,": 2791,
      "▁surprise.": 2792,
      "een": 2793,
      "ying": 2794,
      "▁pizz": 2795,
      "▁moment.": 2796,
      "▁garden,": 2797,
      "▁test": 2798,
      "▁av": 2799,
      "▁sighed": 2800,
      "▁ring": 2801,
      "▁cheese": 2802,
      "▁lit": 2803,
      "▁Some": 2804,
      "▁smiles.": 2805,
      "▁Even": 2806,
      "▁frust": 2807,
      "▁dress.": 2808,
      "▁\"Oh": 2809,
      "▁cele": 2810,
      "pa": 2811,
      "wel": 2812,
      "▁sug": 2813,
      "▁\"P": 2814,
      "▁reg": 2815,
      "▁worri": 2816,
      "▁shiny.": 2817,
      "▁dangerous.": 2818,
      "▁asham": 2819,
      "▁wing": 2820,
      ".\n\naEURoe": 2821,
      "▁us.": 2822,
      "▁yes,": 2823,
      "▁rac": 2824,
      "▁jam": 2825,
      "▁working": 2826,
      "▁paper.": 2827,
      "▁\n\nJohn": 2828,
      "cer": 2829,
      "▁smiling": 2830,
      "▁skipped": 2831,
      "▁boat.": 2832,
      "▁vegetable": 2833,
      "▁din": 2834,
      "▁helpful": 2835,
      "'d": 2836,
      "▁scre": 2837,
      "ase.": 2838,
      "▁understood": 2839,
      "▁jewel": 2840,
      "Jack": 2841,
      "▁write": 2842,
      "▁gently": 2843,
      "▁forever.": 2844,
      "▁frustrat": 2845,
      "ze": 2846,
      "▁wave": 2847,
      "▁pile": 2848,
      "orry,": 2849,
      "▁\"Mom,": 2850,
      "▁that.": 2851,
      "▁Why": 2852,
      "▁hosp": 2853,
      "▁bench": 2854,
      "▁lonely": 2855,
      "▁hospit": 2856,
      "▁wis": 2857,
      "▁dish": 2858,
      "▁pil": 2859,
      "immy": 2860,
      ".\"\n\nMom": 2861,
      "▁share.": 2862,
      "osaur": 2863,
      "fl": 2864,
      "▁healthy": 2865,
      "rag": 2866,
      "illi": 2867,
      "▁trip": 2868,
      "wor": 2869,
      "lly.": 2870,
      "▁dad,": 2871,
      "▁know,": 2872,
      "▁moon": 2873,
      "ange.": 2874,
      "▁burn": 2875,
      "ity": 2876,
      "▁know.": 2877,
      "▁laugh.": 2878,
      "▁building": 2879,
      "▁dinosaur": 2880,
      "▁'": 2881,
      "▁father": 2882,
      "▁gun": 2883,
      "▁apples": 2884,
      "▁fish.": 2885,
      "▁drop": 2886,
      "▁Together": 2887,
      "▁powerful": 2888,
      "ian": 2889,
      "▁gas": 2890,
      "▁sol": 2891,
      "▁room,": 2892,
      "▁shouted.": 2893,
      "▁cookies.": 2894,
      "▁Ch": 2895,
      "▁police": 2896,
      "!\"\n\nLily": 2897,
      "▁twist": 2898,
      "▁surprised.": 2899,
      ".\n\n\"It's": 2900,
      "pack": 2901,
      "▁yard": 2902,
      "▁Be": 2903,
      "▁dirt": 2904,
      "▁Bl": 2905,
      "▁lem": 2906,
      "▁taught": 2907,
      "▁glass": 2908,
      "▁wall.": 2909,
      "▁horse": 2910,
      "idd": 2911,
      "▁you,\"": 2912,
      "▁go,": 2913,
      "▁carried": 2914,
      "?\"\n\nHer": 2915,
      "ement": 2916,
      "▁clouds": 2917,
      "▁circle": 2918,
      "▁pin": 2919,
      "▁scarf": 2920,
      "▁swe": 2921,
      "▁sharing": 2922,
      "erry": 2923,
      "▁shy": 2924,
      "▁\"Sure,": 2925,
      "▁lamp": 2926,
      ".\n\n\"G": 2927,
      "▁coin": 2928,
      "▁clear": 2929,
      "▁\nThe": 2930,
      "▁standing": 2931,
      "port": 2932,
      "▁hur": 2933,
      "▁wash": 2934,
      "▁kitten": 2935,
      "▁kissed": 2936,
      "▁You're": 2937,
      "ecially": 2938,
      "▁Sometimes": 2939,
      "pecially": 2940,
      "▁way,": 2941,
      "▁Teddy": 2942,
      "etaEURTMs": 2943,
      "▁rope": 2944,
      "▁could.": 2945,
      "▁fear": 2946,
      "▁mod": 2947,
      "▁waiting": 2948,
      "▁path": 2949,
      "▁prince": 2950,
      "▁river.": 2951,
      "ale": 2952,
      "und": 2953,
      "▁rare": 2954,
      "▁spend": 2955,
      "▁towel": 2956,
      "▁especially": 2957,
      "▁appeared": 2958,
      "▁sold": 2959,
      ".\n\n\"Mom,": 2960,
      "▁new.": 2961,
      "▁pictures.": 2962,
      "▁top.": 2963,
      "▁thankful": 2964,
      "▁corner": 2965,
      "▁phone": 2966,
      "▁\"Good": 2967,
      "▁pir": 2968,
      "▁taste": 2969,
      ".\n\n\"Maybe": 2970,
      "▁gathered": 2971,
      "▁these": 2972,
      "▁wander": 2973,
      "▁bush": 2974,
      "▁first.": 2975,
      "▁bike.": 2976,
      "sel": 2977,
      "▁horn": 2978,
      "▁fanc": 2979,
      "▁Sus": 2980,
      ".\n\n\"You": 2981,
      "▁mov": 2982,
      "▁adventur": 2983,
      "▁hair.": 2984,
      "▁\"Yes": 2985,
      "fic": 2986,
      "ony": 2987,
      "ummy.": 2988,
      "cod": 2989,
      "▁bag.": 2990,
      "▁Leo": 2991,
      "ien": 2992,
      "▁pay": 2993,
      "▁brilli": 2994,
      "▁bird,": 2995,
      "▁pray": 2996,
      "▁careful,": 2997,
      "▁colors.": 2998,
      "day,": 2999,
      "▁anything.": 3000,
      "▁success": 3001,
      "hip": 3002,
      "ness": 3003,
      "▁yourself": 3004,
      "▁twirl": 3005,
      "▁string": 3006,
      ".\n\nMia": 3007,
      "▁fighting": 3008,
      "▁wagged": 3009,
      "▁crocod": 3010,
      "▁midd": 3011,
      "▁cars.": 3012,
      "▁deer": 3013,
      "▁brilliant": 3014,
      "▁Soon,": 3015,
      "▁ug": 3016,
      "unk": 3017,
      "▁flut": 3018,
      "▁gets": 3019,
      "▁diffic": 3020,
      "▁pieces.": 3021,
      "▁bounc": 3022,
      "▁ignor": 3023,
      "▁tick": 3024,
      "▁you?\"": 3025,
      "ak.": 3026,
      "▁toug": 3027,
      "rell": 3028,
      "▁fig": 3029,
      "erv": 3030,
      "ote": 3031,
      "▁ins": 3032,
      "▁days": 3033,
      "▁feed": 3034,
      "▁stick.": 3035,
      "▁forest,": 3036,
      "▁puddle": 3037,
      "▁\n\nB": 3038,
      "▁grump": 3039,
      "aEURTMt": 3040,
      "▁drum": 3041,
      "▁course": 3042,
      "▁playground": 3043,
      "▁things,": 3044,
      "▁grace": 3045,
      "▁\"Look": 3046,
      "Dad": 3047,
      "ken.": 3048,
      "▁ston": 3049,
      "▁Br": 3050,
      "ife": 3051,
      "▁\n\nAt": 3052,
      "par": 3053,
      "▁fill": 3054,
      "▁rec": 3055,
      "▁chicken": 3056,
      "ue,": 3057,
      "imes,": 3058,
      "▁Ann": 3059,
      "▁calling": 3060,
      "▁perform": 3061,
      "▁peaceful": 3062,
      "▁spider": 3063,
      "ches": 3064,
      "s!": 3065,
      "▁Z": 3066,
      "ite.": 3067,
      "▁saved": 3068,
      "▁hat.": 3069,
      "▁Kitty": 3070,
      "▁jelly": 3071,
      "▁nerv": 3072,
      "▁rad": 3073,
      "▁exam": 3074,
      "▁seek": 3075,
      "▁blow": 3076,
      "▁ord": 3077,
      "▁castle.": 3078,
      "▁splash": 3079,
      "▁determined": 3080,
      "That": 3081,
      "lease,": 3082,
      "▁that?\"": 3083,
      "▁Mandy": 3084,
      "▁turt": 3085,
      "▁fis": 3086,
      "il.": 3087,
      "▁plate": 3088,
      "▁life": 3089,
      "▁asking": 3090,
      "▁cave": 3091,
      "▁manag": 3092,
      "▁pupp": 3093,
      "▁trouble": 3094,
      "▁packed": 3095,
      "▁machine": 3096,
      "ti": 3097,
      "w,": 3098,
      "▁umb": 3099,
      "▁change": 3100,
      "▁hole.": 3101,
      "▁Please": 3102,
      "▁frown": 3103,
      "▁Johnny": 3104,
      "▁fixed": 3105,
      "▁crayons": 3106,
      "▁umbrell": 3107,
      "▁class": 3108,
      "ushed": 3109,
      "▁crawl": 3110,
      "▁candy.": 3111,
      "▁returned": 3112,
      "rn": 3113,
      "▁ed": 3114,
      "re,": 3115,
      "▁At": 3116,
      "▁arg": 3117,
      "▁poor": 3118,
      "▁\"OK,": 3119,
      "▁night.": 3120,
      "▁bottom": 3121,
      "▁ind": 3122,
      "nd.": 3123,
      "▁Mar": 3124,
      "▁road": 3125,
      "▁shows": 3126,
      "▁street.": 3127,
      "▁worried.": 3128,
      "▁sil": 3129,
      "▁honey": 3130,
      "▁can.": 3131,
      "▁birds.": 3132,
      "▁taken": 3133,
      "▁mean.": 3134,
      "▁crack": 3135,
      "▁fire.": 3136,
      ".\n\nMax": 3137,
      "▁smelly": 3138,
      "▁party.": 3139,
      "▁sandwich": 3140,
      "▁chocolate": 3141,
      "elp": 3142,
      "▁sea": 3143,
      "▁lead": 3144,
      "▁daddy.": 3145,
      "▁drawing": 3146,
      "▁journey": 3147,
      "corn": 3148,
      "▁pas": 3149,
      "ilt": 3150,
      "▁Mittens": 3151,
      "▁walked,": 3152,
      "▁borrow": 3153,
      "▁penc": 3154,
      "▁covered": 3155,
      "▁often": 3156,
      "▁\n\nHis": 3157,
      "▁swing.": 3158,
      "▁picks": 3159,
      "▁sneez": 3160,
      "▁beautiful.": 3161,
      "▁broken.": 3162,
      "▁warn": 3163,
      "▁leaves.": 3164,
      "▁drank": 3165,
      "▁\n\nJack": 3166,
      "ject": 3167,
      "▁said.\n\nLily": 3168,
      "▁shirt": 3169,
      "iff": 3170,
      "▁sticks": 3171,
      "obby": 3172,
      "▁mic": 3173,
      "▁map": 3174,
      "▁gar": 3175,
      "▁guit": 3176,
      "▁stuff": 3177,
      ".\n\n\"A": 3178,
      "▁needs": 3179,
      "▁animals,": 3180,
      "▁lemon": 3181,
      "▁licked": 3182,
      "als": 3183,
      "▁all.": 3184,
      "▁\"What's": 3185,
      "▁crying.": 3186,
      "▁places": 3187,
      "▁march": 3188,
      "▁backyard": 3189,
      "▁popcorn": 3190,
      "▁expensive": 3191,
      "!aEUR\n\n": 3192,
      "land": 3193,
      "▁tent": 3194,
      "▁by.": 3195,
      "▁\n\nE": 3196,
      "▁loy": 3197,
      "ure.": 3198,
      "▁car,": 3199,
      "▁jeal": 3200,
      "umbled": 3201,
      "▁mysterious": 3202,
      "▁fancy": 3203,
      "▁it.\n\nThe": 3204,
      "▁faster.": 3205,
      "▁team": 3206,
      "▁enough,": 3207,
      "▁lifted": 3208,
      "Max": 3209,
      "▁tag": 3210,
      "▁girl's": 3211,
      "▁here.": 3212,
      "work": 3213,
      "ey": 3214,
      "▁hunt": 3215,
      "▁depend": 3216,
      "▁stream": 3217,
      "keep": 3218,
      "▁soar": 3219,
      "\"\n\n\"": 3220,
      "▁knight": 3221,
      "▁decide": 3222,
      "▁check": 3223,
      "▁jog": 3224,
      "▁\n\nShe": 3225,
      ".\n\n\"We": 3226,
      "▁cookie": 3227,
      "▁leaf": 3228,
      "▁fence.": 3229,
      "▁ocean": 3230,
      "▁money.": 3231,
      "▁thick": 3232,
      "le,": 3233,
      "▁ever.": 3234,
      "▁\"My": 3235,
      "▁Mark": 3236,
      "ict": 3237,
      "▁flowers,": 3238,
      "▁wrote": 3239,
      ".\n\n\"Hey,": 3240,
      "▁sugar": 3241,
      "▁lying": 3242,
      "▁see.": 3243,
      "▁went,": 3244,
      "▁scary.": 3245,
      "▁ball,": 3246,
      "▁mommy,": 3247,
      "?\"\n\nBen": 3248,
      "▁long,": 3249,
      "▁fright": 3250,
      "▁well.": 3251,
      "▁incred": 3252,
      "▁medic": 3253,
      "▁stair": 3254,
      "▁If": 3255,
      "▁sheep": 3256,
      "\"\n\nThey": 3257,
      "▁Sam,": 3258,
      "▁lot.": 3259,
      "▁jumping": 3260,
      "▁sunshine.": 3261,
      "iqu": 3262,
      "▁to.": 3263,
      "▁dest": 3264,
      "▁pur": 3265,
      ".\n\nIn": 3266,
      "▁Jane.": 3267,
      "ella": 3268,
      "▁pee": 3269,
      "▁aEURoeL": 3270,
      "▁warm.": 3271,
      "▁tight.": 3272,
      "▁sparkly": 3273,
      ".\n\nLater": 3274,
      "▁problem": 3275,
      "come": 3276,
      "▁wet.": 3277,
      "▁Bun": 3278,
      "▁become": 3279,
      "▁track": 3280,
      "!\"\n\nTom": 3281,
      ".\n\nSo,": 3282,
      "▁school.": 3283,
      "▁circ": 3284,
      "▁sunshine": 3285,
      "▁confus": 3286,
      "▁managed": 3287,
      "▁loyal": 3288,
      "kin": 3289,
      "▁mir": 3290,
      "▁pant": 3291,
      "▁clap": 3292,
      "▁old,": 3293,
      "▁hopping": 3294,
      "▁uniqu": 3295,
      "▁goodbye.": 3296,
      "▁walks": 3297,
      "▁relax": 3298,
      "▁dirty.": 3299,
      "▁grandma.": 3300,
      "▁poured": 3301,
      "She": 3302,
      "oot": 3303,
      "ready": 3304,
      "▁luck": 3305,
      "▁rat": 3306,
      "▁boss": 3307,
      "▁seed": 3308,
      "▁already": 3309,
      "▁char": 3310,
      "▁Dad.": 3311,
      "▁shoot": 3312,
      "▁compet": 3313,
      "▁clothes.": 3314,
      "▁pillow": 3315,
      "▁colourful": 3316,
      "▁splashed": 3317,
      "▁necklace": 3318,
      "▁generous": 3319,
      "▁frighten": 3320,
      "dge": 3321,
      "▁sink": 3322,
      ".\n\nOn": 3323,
      "▁yummy.": 3324,
      "▁fly.": 3325,
      "▁high.": 3326,
      "▁words.": 3327,
      "▁banana": 3328,
      "▁aw": 3329,
      "▁mummy": 3330,
      "▁cost": 3331,
      ".\"\n\nAnna": 3332,
      "Gra": 3333,
      "▁waves": 3334,
      "▁\"Come": 3335,
      "▁rid": 3336,
      "?\"\n\nTom": 3337,
      "▁sky,": 3338,
      "▁box,": 3339,
      "▁offered": 3340,
      "▁small,": 3341,
      "▁rude": 3342,
      "▁butterfly.": 3343,
      "body": 3344,
      "▁batter": 3345,
      "▁mot": 3346,
      "▁ok": 3347,
      "ado": 3348,
      "▁spun": 3349,
      "▁Jake": 3350,
      "▁trees,": 3351,
      "▁look.": 3352,
      "▁over.": 3353,
      "▁creative": 3354,
      "uggest": 3355,
      "▁field.": 3356,
      "▁lunch.": 3357,
      "▁breath": 3358,
      "▁suit": 3359,
      "▁suggest": 3360,
      "▁fake": 3361,
      "▁was,": 3362,
      "ache": 3363,
      "▁opens": 3364,
      "▁unus": 3365,
      "▁\"Hi,": 3366,
      "▁wrap": 3367,
      "▁week": 3368,
      "▁log": 3369,
      "▁lose": 3370,
      "▁Sam's": 3371,
      ".\n\nLily's": 3372,
      "▁realised": 3373,
      "▁No": 3374,
      "▁enjoying": 3375,
      "▁understand.": 3376,
      ".\n\n\"Oh": 3377,
      "olog": 3378,
      "▁\"No": 3379,
      "▁couch": 3380,
      "▁discovered": 3381,
      "▁empty": 3382,
      "▁unusu": 3383,
      "▁it,\"": 3384,
      "▁sand.": 3385,
      "▁mouth.": 3386,
      "▁obed": 3387,
      "▁apolog": 3388,
      "Sam": 3389,
      "▁lif": 3390,
      "▁built": 3391,
      "▁valu": 3392,
      "▁middle": 3393,
      "eor": 3394,
      "▁norm": 3395,
      "oop": 3396,
      "▁island": 3397,
      "▁anc": 3398,
      "▁flash": 3399,
      "▁match": 3400,
      "Mia": 3401,
      "▁done.": 3402,
      ".\n\nMommy": 3403,
      "add": 3404,
      "▁jack": 3405,
      "▁trut": 3406,
      "▁cleaned": 3407,
      "▁means": 3408,
      "▁agreed.": 3409,
      "▁pointing": 3410,
      "▁cream.": 3411,
      "▁guess": 3412,
      "-up": 3413,
      "▁ext": 3414,
      "▁helps": 3415,
      "▁cab": 3416,
      "▁Mommy.": 3417,
      "▁van": 3418,
      "▁Sarah.": 3419,
      "▁pup": 3420,
      "▁fier": 3421,
      "▁famous": 3422,
      "Ben,": 3423,
      "▁street": 3424,
      "▁birthday.": 3425,
      "▁added": 3426,
      "kn": 3427,
      "▁happin": 3428,
      "▁fun!\"": 3429,
      "▁road.": 3430,
      "▁memor": 3431,
      "ouse.": 3432,
      "▁sword": 3433,
      "▁lonely.": 3434,
      "▁Pete": 3435,
      "▁pizza": 3436,
      "ss,": 3437,
      "▁torn": 3438,
      "erg": 3439,
      "iger": 3440,
      "▁\n\nTom": 3441,
      "▁wanted.": 3442,
      "▁chal": 3443,
      "▁bloom": 3444,
      "▁frid": 3445,
      "▁pleased": 3446,
      "▁imagin": 3447,
      "▁comfortable": 3448,
      "▁admired": 3449,
      "▁bake": 3450,
      "▁swan": 3451,
      "▁care.": 3452,
      "▁Max,": 3453,
      "▁favour": 3454,
      "▁giving": 3455,
      "▁independ": 3456,
      "▁ancient": 3457,
      "iv": 3458,
      "uce": 3459,
      "wled": 3460,
      "▁tom": 3461,
      "▁dig": 3462,
      "▁shock": 3463,
      "▁rep": 3464,
      "▁scrat": 3465,
      "▁tea": 3466,
      "▁Peter": 3467,
      "uggled": 3468,
      "▁sailed": 3469,
      "▁balance": 3470,
      "▁extra": 3471,
      "▁bed,": 3472,
      "▁barn": 3473,
      "▁fool": 3474,
      "▁dough": 3475,
      "enny": 3476,
      "▁net": 3477,
      "▁moving": 3478,
      "▁crawled": 3479,
      "▁bugs": 3480,
      "▁mailbox": 3481,
      "▁bench.": 3482,
      "known": 3483,
      "So": 3484,
      "ator": 3485,
      "▁libr": 3486,
      "▁feet": 3487,
      "▁branc": 3488,
      "▁law": 3489,
      "▁again!": 3490,
      "▁enorm": 3491,
      "▁OK": 3492,
      "▁shapes.": 3493,
      "▁easy": 3494,
      "▁invited": 3495,
      "▁scissors": 3496,
      "▁mirr": 3497,
      "pill": 3498,
      "▁bump": 3499,
      "ery": 3500,
      "s.\"": 3501,
      "▁loll": 3502,
      "▁scare": 3503,
      "▁learning": 3504,
      "▁snow.": 3505,
      "▁kinds": 3506,
      "▁trouble.": 3507,
      "▁passed": 3508,
      "▁incredible": 3509,
      "▁favourite": 3510,
      "cus": 3511,
      "led.": 3512,
      "erly": 3513,
      "▁showing": 3514,
      "aul": 3515,
      "▁clean.": 3516,
      "▁walking,": 3517,
      "▁crayons.": 3518,
      "▁puzzle": 3519,
      "▁ugly": 3520,
      "▁competit": 3521,
      "el.": 3522,
      "▁clown": 3523,
      "▁\n\nThen": 3524,
      "▁closer.": 3525,
      "▁sett": 3526,
      ".\n\n\"Sure,": 3527,
      "▁sick.": 3528,
      "▁wiped": 3529,
      "az": 3530,
      "het": 3531,
      "erpill": 3532,
      "▁shark": 3533,
      "▁sea.": 3534,
      "▁excla": 3535,
      "▁knows": 3536,
      "▁caterpill": 3537,
      "▁bedroom": 3538,
      "▁promis": 3539,
      "▁dark.": 3540,
      "▁treats": 3541,
      ".\"\n\nSara": 3542,
      "▁exclaim": 3543,
      "▁fat": 3544,
      "▁cudd": 3545,
      "▁yog": 3546,
      "▁moms": 3547,
      "▁friendly.": 3548,
      "▁spicy": 3549,
      "ipop": 3550,
      "▁using": 3551,
      "▁plan.": 3552,
      "ventually,": 3553,
      "▁Ella": 3554,
      "▁straw": 3555,
      "light": 3556,
      "▁terri": 3557,
      "▁witch": 3558,
      "▁four": 3559,
      "arry": 3560,
      "▁eld": 3561,
      "▁yes.": 3562,
      "cept": 3563,
      "tern": 3564,
      "▁girl,": 3565,
      "▁toy,": 3566,
      "▁Dan": 3567,
      "▁grown": 3568,
      "▁unknown": 3569,
      "▁\"Hello": 3570,
      "▁bald": 3571,
      "▁dream.": 3572,
      "▁sleep.": 3573,
      "▁lady.": 3574,
      "▁Susie": 3575,
      "▁lollipop": 3576,
      "▁stumbled": 3577,
      "!\"\n\nBut": 3578,
      "▁univer": 3579,
      "▁amazed.": 3580,
      "▁bush.": 3581,
      "▁son": 3582,
      ".\n\nF": 3583,
      "▁said.\n\nThe": 3584,
      "▁brush": 3585,
      "aghet": 3586,
      "▁cheap": 3587,
      "▁trick": 3588,
      "▁harm": 3589,
      "▁giggled": 3590,
      "oppy": 3591,
      "ope.": 3592,
      "▁adv": 3593,
      "▁now,": 3594,
      "▁closer,": 3595,
      "▁tower.": 3596,
      "▁Bob.": 3597,
      "▁Kim": 3598,
      "▁surprise,": 3599,
      "▁polite": 3600,
      "▁smart.": 3601,
      "▁Alice": 3602,
      "▁cop": 3603,
      "▁spaghet": 3604,
      "▁Fin": 3605,
      "ement.": 3606,
      "▁stop.": 3607,
      "▁reminded": 3608,
      "▁tomorrow": 3609,
      "▁tough": 3610,
      "▁figure": 3611,
      "▁record": 3612,
      "▁enormous": 3613,
      "pot": 3614,
      "ries": 3615,
      "▁not.": 3616,
      "ured": 3617,
      "ic.": 3618,
      "▁clapp": 3619,
      "▁lazy": 3620,
      "▁End.": 3621,
      "oby": 3622,
      "▁dreamed": 3623,
      "▁whistle": 3624,
      "▁avo": 3625,
      "fast": 3626,
      "▁toast": 3627,
      "▁mis": 3628,
      "pper": 3629,
      "▁Bill": 3630,
      "▁My": 3631,
      ".\n\n\"D": 3632,
      "▁chir": 3633,
      "▁everyone.": 3634,
      "▁rocket": 3635,
      "▁unl": 3636,
      "inning": 3637,
      "▁pattern": 3638,
      "▁mixed": 3639,
      "▁teeth": 3640,
      "▁difficult": 3641,
      "ext": 3642,
      "▁pal": 3643,
      "▁Suddenly": 3644,
      "pped.": 3645,
      "▁Lily!": 3646,
      "▁brace": 3647,
      "▁ruined": 3648,
      "▁rest.": 3649,
      ".\n\n\"OK,": 3650,
      "▁breakfast": 3651,
      "▁song.": 3652,
      "▁carrots": 3653,
      "▁village": 3654,
      "▁crocodile": 3655,
      "▁Brown": 3656,
      "▁foolish": 3657,
      "▁strawber": 3658,
      "▁ing": 3659,
      "lev": 3660,
      "▁once": 3661,
      "▁weird": 3662,
      "▁\n\nT": 3663,
      "▁spin": 3664,
      "▁lean": 3665,
      "▁relia": 3666,
      "▁answer.": 3667,
      "▁job,": 3668,
      "upid": 3669,
      "▁whisp": 3670,
      "▁edge": 3671,
      "▁ingred": 3672,
      "Lila": 3673,
      "▁stupid": 3674,
      "▁\n\nMommy": 3675,
      "▁chase": 3676,
      "▁knee": 3677,
      "izzy": 3678,
      "▁wolf": 3679,
      "▁noisy": 3680,
      "▁store,": 3681,
      "▁mighty": 3682,
      ".\n\nLila": 3683,
      "▁pocket.": 3684,
      "▁Tweety": 3685,
      "▁grumpy": 3686,
      "▁ingredient": 3687,
      "▁frag": 3688,
      "▁moder": 3689,
      "▁Nem": 3690,
      "▁rabbit.": 3691,
      "▁yelled": 3692,
      "▁painting": 3693,
      "▁biggest": 3694,
      "▁tears": 3695,
      "▁adventurous": 3696,
      "▁graceful": 3697,
      "row.": 3698,
      "hes,": 3699,
      "▁cur": 3700,
      "▁oper": 3701,
      "▁Dais": 3702,
      "▁post": 3703,
      "▁slide,": 3704,
      "▁\"Oh,": 3705,
      "▁squeez": 3706,
      ".\n\nJust": 3707,
      "▁doing?\"": 3708,
      "▁music.": 3709,
      "▁belonged": 3710,
      "▁ladder": 3711,
      "▁spoiled": 3712,
      "▁disappoint": 3713,
      "▁Blue": 3714,
      "▁gum": 3715,
      "orill": 3716,
      "▁weak": 3717,
      "▁sell": 3718,
      "▁clock": 3719,
      "▁loud.": 3720,
      "▁painted": 3721,
      "▁zip": 3722,
      "▁branch.": 3723,
      "▁design": 3724,
      "▁bridge": 3725,
      "▁hospital": 3726,
      "▁turtle": 3727,
      "ie,": 3728,
      "ym": 3729,
      "▁tie": 3730,
      "▁wake": 3731,
      "▁me!\"": 3732,
      "▁vie": 3733,
      "▁proudly": 3734,
      "▁writ": 3735,
      "▁telling": 3736,
      "▁delicious.": 3737,
      "▁plants": 3738,
      "▁cheerful": 3739,
      "▁resc": 3740,
      "▁Together,": 3741,
      "▁cabin": 3742,
      "▁fierce": 3743,
      "▁silly.": 3744,
      "▁camp": 3745,
      "▁melt": 3746,
      "▁\"R": 3747,
      "▁one,": 3748,
      "ention": 3749,
      "▁nose.": 3750,
      "▁say.": 3751,
      "▁against": 3752,
      "▁\n\nSo,": 3753,
      "▁brother.": 3754,
      "▁juicy": 3755,
      "▁falls": 3756,
      ".\n\nEvery": 3757,
      "keeper": 3758,
      "▁valuable": 3759,
      "▁elderly": 3760,
      "▁ahe": 3761,
      "▁Anna,": 3762,
      "▁enc": 3763,
      "▁gloom": 3764,
      "▁Whenever": 3765,
      "▁peeked": 3766,
      "eorge": 3767,
      "▁modern": 3768,
      "-c": 3769,
      "▁hours": 3770,
      "onaEURTMt": 3771,
      ".\n\nW": 3772,
      "▁rough": 3773,
      "▁sock": 3774,
      "▁forth": 3775,
      "▁anx": 3776,
      "▁spe": 3777,
      "▁no!\"": 3778,
      "agg": 3779,
      "▁muff": 3780,
      "▁twig": 3781,
      "▁messy": 3782,
      "▁metal": 3783,
      "▁everywhere.": 3784,
      "▁repair": 3785,
      "▁spaghetti": 3786,
      "cut": 3787,
      "ment": 3788,
      "tim": 3789,
      "▁beet": 3790,
      "▁stone": 3791,
      "▁Bobby": 3792,
      "▁shore": 3793,
      "▁shadow": 3794,
      "ter.": 3795,
      "▁picture.": 3796,
      "▁children.": 3797,
      "▁explored": 3798,
      "▁heavy.": 3799,
      "▁nap.": 3800,
      "▁upset.": 3801,
      "aurant": 3802,
      "ient.": 3803,
      "s.\n\nOne": 3804,
      "ud": 3805,
      "zy.": 3806,
      "▁rug": 3807,
      "uring": 3808,
      "▁sniff": 3809,
      "▁create": 3810,
      "▁restaurant": 3811,
      "▁farm.": 3812,
      "▁object": 3813,
      "▁journey.": 3814,
      "▁tunn": 3815,
      "▁unlock": 3816,
      "▁bitt": 3817,
      "▁nur": 3818,
      "▁ham": 3819,
      "▁Sn": 3820,
      "▁Sue.": 3821,
      "▁play,": 3822,
      ".\n\n\"B": 3823,
      "▁rode": 3824,
      "▁seem": 3825,
      "asing": 3826,
      "▁slipped": 3827,
      "▁sunfl": 3828,
      "▁replied.": 3829,
      "▁noises.": 3830,
      "▁leaving": 3831,
      "▁heart.": 3832,
      "▁resist": 3833,
      "▁wrapped": 3834,
      "▁tidy": 3835,
      "▁life.": 3836,
      "▁bent": 3837,
      "oof": 3838,
      "▁stri": 3839,
      "▁ref": 3840,
      "▁Dave": 3841,
      "▁Fr": 3842,
      "▁jolly": 3843,
      "less.": 3844,
      "▁legs": 3845,
      "▁pencil": 3846,
      "▁unique": 3847,
      "-a": 3848,
      "?aEUR\n\n": 3849,
      "▁dess": 3850,
      "▁mine.": 3851,
      "imp": 3852,
      "▁refu": 3853,
      "▁choose": 3854,
      "▁Sara's": 3855,
      "▁pretending": 3856,
      "▁cool.": 3857,
      "▁today.": 3858,
      "▁practice": 3859,
      "▁view": 3860,
      "se,": 3861,
      "enry": 3862,
      "▁nat": 3863,
      "▁liz": 3864,
      "▁shake": 3865,
      "▁\n\nFinally,": 3866,
      "▁funny.": 3867,
      "▁thought,": 3868,
      "▁strange.": 3869,
      "▁story.": 3870,
      "▁square": 3871,
      "▁dancing": 3872,
      "▁chair.": 3873,
      "▁raced": 3874,
      "-y": 3875,
      "Thank": 3876,
      "▁tied": 3877,
      "▁wand": 3878,
      "▁flex": 3879,
      "▁oy": 3880,
      "ile.": 3881,
      "▁gorill": 3882,
      "atter": 3883,
      "ot.": 3884,
      "▁themsel": 3885,
      "aser": 3886,
      "▁away.\n\nThe": 3887,
      "▁handed": 3888,
      "▁envel": 3889,
      "▁nice,": 3890,
      "▁travel": 3891,
      "▁accept": 3892,
      "▁places.": 3893,
      "▁parrot": 3894,
      "▁stretch": 3895,
      "▁costum": 3896,
      "\nThe": 3897,
      "ek.": 3898,
      "▁berri": 3899,
      "▁line": 3900,
      "▁dust": 3901,
      "▁you.\"\n\n": 3902,
      "▁But,": 3903,
      "▁anywhere": 3904,
      "▁door,": 3905,
      "▁steal": 3906,
      "▁lost.": 3907,
      "▁chose": 3908,
      "▁nest.": 3909,
      "▁study": 3910,
      "▁faces": 3911,
      "aw": 3912,
      "fish": 3913,
      "ffe": 3914,
      "▁Soon": 3915,
      "▁stat": 3916,
      "▁rece": 3917,
      "▁spilled": 3918,
      "▁friendship": 3919,
      "▁Max's": 3920,
      "▁games.": 3921,
      "▁airport": 3922,
      "▁dance.": 3923,
      "▁joined": 3924,
      "▁problem.": 3925,
      "▁shelf.": 3926,
      "▁embarrassed": 3927,
      "▁caterpillar": 3928,
      "▁side.": 3929,
      "ity.": 3930,
      "▁dull": 3931,
      "ates": 3932,
      "anged": 3933,
      "▁race.": 3934,
      "▁rushed": 3935,
      "▁shel": 3936,
      "▁wealthy": 3937,
      "▁couldnaEURTMt": 3938,
      "▁no!": 3939,
      "▁clay": 3940,
      "▁boy,": 3941,
      "▁\"Well": 3942,
      "▁uncom": 3943,
      "▁adventures.": 3944,
      "▁important.": 3945,
      "▁blueber": 3946,
      "▁rubb": 3947,
      "▁gift.": 3948,
      "▁attract": 3949,
      "▁finger": 3950,
      "▁kicked": 3951,
      "▁confused.": 3952,
      "▁unusual": 3953,
      "▁normal": 3954,
      "-year": 3955,
      "▁uncomfort": 3956,
      "▁health": 3957,
      "▁pump": 3958,
      "anut": 3959,
      "▁bees": 3960,
      ".\n\n\"Tom": 3961,
      "▁went.": 3962,
      "▁allowed": 3963,
      "▁mush": 3964,
      "▁finding": 3965,
      "▁soon,": 3966,
      "▁different.": 3967,
      "▁while.": 3968,
      "▁complet": 3969,
      "▁distance.": 3970,
      "▁Ellie": 3971,
      "▁confused": 3972,
      "▁sudden": 3973,
      "▁honey.": 3974,
      "▁ones": 3975,
      "▁clum": 3976,
      "▁club": 3977,
      "▁birdie": 3978,
      "▁dead": 3979,
      "▁quiet.": 3980,
      "▁mistake.": 3981,
      "▁thinking": 3982,
      "▁frustrated": 3983,
      "-cream": 3984,
      "dom": 3985,
      "ibb": 3986,
      "▁tank": 3987,
      "▁shone": 3988,
      "▁Benny.": 3989,
      "▁Your": 3990,
      "▁water,": 3991,
      "▁queen": 3992,
      "!\n\nA": 3993,
      "▁butterfl": 3994,
      "▁print": 3995,
      "ophie": 3996,
      "▁mine!\"": 3997,
      "ze.": 3998,
      "▁Ted": 3999,
      "▁half": 4000,
      "▁ink": 4001,
      "▁whale": 4002,
      "ained": 4003,
      "▁cars,": 4004,
      "▁knee.": 4005,
      "bborn": 4006,
      "▁Anna's": 4007,
      "▁order": 4008,
      "▁smaller": 4009,
      "▁hairy": 4010,
      "▁ice-cream": 4011,
      ".\n\nLucy": 4012,
      "▁guil": 4013,
      "▁bowl.": 4014,
      "▁stubborn": 4015,
      "▁minutes,": 4016,
      "▁ocean.": 4017,
      "▁impressed": 4018,
      "▁regular": 4019,
      "▁stones": 4020,
      "fore": 4021,
      "▁lid": 4022,
      "▁may": 4023,
      "ely,": 4024,
      "▁saying": 4025,
      "▁fluffy": 4026,
      "▁hose": 4027,
      "▁sounded": 4028,
      "▁zipp": 4029,
      "▁driving": 4030,
      "▁snacks": 4031,
      ".\n\nBob": 4032,
      "▁cartoon": 4033,
      "▁umbrella": 4034,
      "▁dependable": 4035,
      "ating": 4036,
      "▁arrow": 4037,
      "▁bird's": 4038,
      "▁dolls.": 4039,
      "▁ever!": 4040,
      "▁dea": 4041,
      "▁monst": 4042,
      "▁work,": 4043,
      ".\n\n\"Stop": 4044,
      "▁obedient": 4045,
      "-old": 4046,
      "▁those": 4047,
      "ade.": 4048,
      "▁Lily,\"": 4049,
      "▁Mummy": 4050,
      "▁helm": 4051,
      "ellig": 4052,
      "▁intellig": 4053,
      "!\"\n\nBen": 4054,
      "▁suns": 4055,
      "▁right,": 4056,
      "▁cryst": 4057,
      "▁rud": 4058,
      "▁counted": 4059,
      "▁compass": 4060,
      "▁pale": 4061,
      "▁job.": 4062,
      "▁cooking": 4063,
      "brat": 4064,
      "▁send": 4065,
      "▁sight": 4066,
      "▁rich": 4067,
      "▁shiver": 4068,
      "▁measure": 4069,
      "▁Mom,": 4070,
      ".\n\n\"Look": 4071,
      "▁rub": 4072,
      "▁holds": 4073,
      "▁crick": 4074,
      "▁town.": 4075,
      "▁camer": 4076,
      "▁successful": 4077,
      "▁tomato": 4078,
      "s!\"": 4079,
      "was": 4080,
      "▁tire": 4081,
      "▁heal": 4082,
      "▁nail": 4083,
      "amond": 4084,
      "▁stamp": 4085,
      "ric": 4086,
      "▁notice": 4087,
      "inde": 4088,
      "▁scoot": 4089,
      "▁above": 4090,
      "▁sorts": 4091,
      "?\"\n\nAnna": 4092,
      "▁\"Hi": 4093,
      "▁haircut": 4094,
      "▁frog.": 4095,
      "▁later": 4096,
      "▁Grand": 4097,
      "▁faces.": 4098,
      "▁celebrat": 4099,
      "▁Daisy.": 4100,
      "cess.": 4101,
      "▁mug": 4102,
      "▁stack": 4103,
      "▁soap": 4104,
      "▁reinde": 4105,
      "▁load": 4106,
      "▁sort": 4107,
      "▁runn": 4108,
      "▁coming.": 4109,
      "▁magn": 4110,
      "▁duck.": 4111,
      "▁diamond": 4112,
      "▁dishwas": 4113,
      "▁warned": 4114,
      "▁aEURoeLetaEURTMs": 4115,
      "▁dishwasher": 4116,
      "What": 4117,
      "heart": 4118,
      "▁suddenly,": 4119,
      "ither": 4120,
      "▁shaking": 4121,
      "\"\n\nTom": 4122,
      "!\"\n\nA": 4123,
      "▁picking": 4124,
      "▁snuggled": 4125,
      "▁nearby.": 4126,
      "▁bunny.": 4127,
      "▁comput": 4128,
      "▁songs.": 4129,
      "▁gifted": 4130,
      "▁treasure.": 4131,
      "▁aunt": 4132,
      ".\n\nD": 4133,
      "▁worry.": 4134,
      "▁mad.": 4135,
      "▁comb": 4136,
      "▁Paul": 4137,
      "appy": 4138,
      "▁blanket.": 4139,
      "▁modest": 4140,
      "▁suggested": 4141,
      "▁reliable": 4142,
      "▁hour": 4143,
      "▁mouse.": 4144,
      "▁Toby": 4145,
      "▁oct": 4146,
      "ons": 4147,
      "▁onion": 4148,
      "\"\n\nBen": 4149,
      "▁name.": 4150,
      "▁other,": 4151,
      "▁excitement": 4152,
      "▁peanut": 4153,
      "▁open.": 4154,
      "▁okay?\"": 4155,
      "▁\n\nAnd": 4156,
      "▁sweetie.": 4157,
      "▁sparkled": 4158,
      "▁free.": 4159,
      "ebra": 4160,
      "▁charming": 4161,
      "▁motor": 4162,
      "▁octop": 4163,
      "ier.": 4164,
      "▁U": 4165,
      "▁exper": 4166,
      "▁scatter": 4167,
      "▁off,": 4168,
      "▁raft": 4169,
      "▁hard,": 4170,
      "▁Pat": 4171,
      "▁stopped.": 4172,
      "▁unpack": 4173,
      "▁eye": 4174,
      "▁deliver": 4175,
      "▁Rose": 4176,
      "▁\"Are": 4177,
      "▁asleep.": 4178,
      "▁selfish.": 4179,
      "loo": 4180,
      "▁curt": 4181,
      "imi": 4182,
      "▁thirst": 4183,
      "▁pressed": 4184,
      "▁bull": 4185,
      "▁George": 4186,
      "▁zebra": 4187,
      "▁parents.": 4188,
      "▁me.\"": 4189,
      "▁fight.": 4190,
      ".\n\n\"That": 4191,
      "▁wings.": 4192,
      "▁miser": 4193,
      "aggie": 4194,
      "▁curtain": 4195,
      "ray": 4196,
      "▁bri": 4197,
      "▁gate": 4198,
      "▁sof": 4199,
      "▁noteb": 4200,
      "illie": 4201,
      "▁smiling.": 4202,
      "▁poem": 4203,
      "▁pebble": 4204,
      "▁skip": 4205,
      "▁env": 4206,
      "▁compl": 4207,
      "▁spot.": 4208,
      "▁light.": 4209,
      "▁stars.": 4210,
      "▁\n\nLily's": 4211,
      "▁shape": 4212,
      ".\n\n\"That's": 4213,
      "▁miner": 4214,
      "▁persist": 4215,
      "▁nods.": 4216,
      "▁delighted": 4217,
      "▁guitar": 4218,
      "▁destro": 4219,
      "▁encou": 4220,
      "ci": 4221,
      "gn": 4222,
      "▁cere": 4223,
      "▁washed": 4224,
      "▁golf": 4225,
      "▁seen.": 4226,
      "▁separ": 4227,
      "▁Amy.": 4228,
      "icop": 4229,
      "▁boys": 4230,
      "▁dogs": 4231,
      "▁dad's": 4232,
      "▁Fred": 4233,
      "▁anyway": 4234,
      "▁over,": 4235,
      "▁rocks.": 4236,
      "▁bite.": 4237,
      "▁rubbed": 4238,
      "board.": 4239,
      "▁\"Stop": 4240,
      "▁further": 4241,
      "▁cries": 4242,
      "▁juice.": 4243,
      ".\"\n\nShe": 4244,
      "▁smoke": 4245,
      "▁pige": 4246,
      "▁band-a": 4247,
      "▁escape": 4248,
      "▁ignorant": 4249,
      "▁Nemo": 4250,
      "▁band-aid": 4251,
      "dy,": 4252,
      "▁ol": 4253,
      "▁Lil": 4254,
      "▁reco": 4255,
      "▁cave.": 4256,
      "▁tape": 4257,
      "▁stories.": 4258,
      "▁perm": 4259,
      "▁delicate": 4260,
      ".\n\n\"Help": 4261,
      "▁potato": 4262,
      "▁sister.": 4263,
      "▁basket.": 4264,
      "▁troub": 4265,
      "▁admire": 4266,
      "▁disappeared": 4267,
      "▁compassion": 4268,
      "pect": 4269,
      "ubby": 4270,
      "▁tummy": 4271,
      "▁cush": 4272,
      ".\n\nN": 4273,
      "▁love.": 4274,
      ".\n\n\"Y": 4275,
      "▁helicop": 4276,
      "▁knife": 4277,
      "▁together.\"": 4278,
      "▁vase": 4279,
      "▁stranger": 4280,
      "▁sweetheart": 4281,
      "▁happily.": 4282,
      "▁later,": 4283,
      "▁cooked": 4284,
      "▁embarrass": 4285,
      "Lucy": 4286,
      "▁aut": 4287,
      "▁siz": 4288,
      "ine,": 4289,
      "▁lend": 4290,
      ".\n\nIt": 4291,
      "▁fork": 4292,
      "▁sometimes,": 4293,
      "▁flour": 4294,
      "▁vide": 4295,
      "▁\"Where": 4296,
      "▁Andy": 4297,
      "▁barber": 4298,
      "▁soup.": 4299,
      "▁milk.": 4300,
      "▁ashamed.": 4301,
      "▁screw": 4302,
      "ience": 4303,
      "▁notebook": 4304,
      "ab": 4305,
      "ies,": 4306,
      "▁bean": 4307,
      "▁shut": 4308,
      "rage": 4309,
      "▁too!\"": 4310,
      "▁speak": 4311,
      "▁Ducky": 4312,
      ".\n\nSoon,": 4313,
      "▁angel": 4314,
      "▁wrong,": 4315,
      "▁hot.": 4316,
      "▁bored.": 4317,
      "▁ants": 4318,
      "▁\"Be": 4319,
      "▁surf": 4320,
      "▁disappointed": 4321,
      "▁medicine": 4322,
      "▁avoc": 4323,
      "▁whispered": 4324,
      "▁ingredients": 4325,
      "▁sunflower": 4326,
      "▁Lila.": 4327,
      "aff": 4328,
      "lph": 4329,
      "▁ten": 4330,
      "▁tug": 4331,
      "reci": 4332,
      "▁pun": 4333,
      "▁itself": 4334,
      "▁beg": 4335,
      "▁goat": 4336,
      "▁board": 4337,
      "arth": 4338,
      "▁vi": 4339,
      "▁try.": 4340,
      "▁Give": 4341,
      "▁appreci": 4342,
      "▁doesn't": 4343,
      "▁paint.": 4344,
      "▁ready.": 4345,
      "▁matt": 4346,
      "▁placed": 4347,
      "▁tightly": 4348,
      "▁marble": 4349,
      "?\"\n\n\"I": 4350,
      "▁wagon": 4351,
      "▁pilot": 4352,
      "▁soldier": 4353,
      "▁jealous": 4354,
      "▁independent": 4355,
      "sc": 4356,
      "▁fu": 4357,
      "▁ur": 4358,
      "▁you!": 4359,
      "▁playful": 4360,
      "▁is.": 4361,
      "▁Tim,": 4362,
      ".\n\n\"Ben,": 4363,
      "▁cact": 4364,
      "▁While": 4365,
      "▁birds,": 4366,
      "▁lab": 4367,
      "▁aEURoeIt": 4368,
      "▁discus": 4369,
      "▁ruin": 4370,
      "uffy.": 4371,
      "▁dreaming": 4372,
      "▁set,": 4373,
      "▁please!\"": 4374,
      "▁snack.": 4375,
      "▁stirred": 4376,
      "▁chalk": 4377,
      "▁gorilla": 4378,
      "gu": 4379,
      "iest": 4380,
      "▁cher": 4381,
      "▁mill": 4382,
      "▁dolph": 4383,
      "▁jug": 4384,
      "▁names": 4385,
      "▁cable": 4386,
      "▁rose": 4387,
      "▁somewhere": 4388,
      "▁trump": 4389,
      "▁asks.": 4390,
      "▁tired,": 4391,
      "▁bags": 4392,
      "▁Or": 4393,
      ".\n\n\"Hi,": 4394,
      "▁fruits": 4395,
      "▁bounce": 4396,
      "▁value": 4397,
      "▁jungle.": 4398,
      "▁bossy": 4399,
      "▁lizard": 4400,
      "hood": 4401,
      "▁led": 4402,
      "ision": 4403,
      "ames": 4404,
      "stair": 4405,
      "▁going.": 4406,
      "▁nosy": 4407,
      "▁scarf.": 4408,
      "▁slipp": 4409,
      "▁swings.": 4410,
      "▁musician": 4411,
      "▁ashamed": 4412,
      "▁Snow": 4413,
      "▁rude.": 4414,
      "ead.": 4415,
      "▁padd": 4416,
      "▁day!": 4417,
      "▁shore.": 4418,
      "ally.": 4419,
      "seum": 4420,
      "▁didnaEURTMt": 4421,
      ".\n\nTheir": 4422,
      "▁blue.": 4423,
      "!\"\n\nHer": 4424,
      "▁show.": 4425,
      "▁glow": 4426,
      "▁Pe": 4427,
      "▁close.": 4428,
      "▁John.": 4429,
      "▁brightly": 4430,
      "▁hats": 4431,
      "▁arm.": 4432,
      ".\n\n\"Okay,": 4433,
      "▁boring": 4434,
      ".\n\n\"Sorry,": 4435,
      "uper": 4436,
      "▁penny": 4437,
      "▁guard": 4438,
      "▁instead.": 4439,
      "▁grandpa": 4440,
      "▁jungle": 4441,
      "▁twirled": 4442,
      "Grandma": 4443,
      "▁flashlight": 4444,
      "▁mirror": 4445,
      "▁tiger": 4446,
      "▁dry.": 4447,
      "igin": 4448,
      "▁beam": 4449,
      "▁nobody": 4450,
      "▁prun": 4451,
      "▁changed": 4452,
      "▁finds": 4453,
      "▁trunk": 4454,
      "▁run.": 4455,
      "▁this?\"": 4456,
      "▁closet.": 4457,
      "▁joke": 4458,
      "▁food,": 4459,
      "▁forgave": 4460,
      "▁mum.": 4461,
      "▁please.": 4462,
      "▁later.": 4463,
      "▁marched": 4464,
      "ola": 4465,
      "▁decorate": 4466,
      "▁puppy.": 4467,
      "▁frightened": 4468,
      "▁terrible": 4469,
      "▁recogn": 4470,
      "te": 4471,
      "▁icy": 4472,
      "inary": 4473,
      "▁hook": 4474,
      "▁gem": 4475,
      "▁thie": 4476,
      "▁beep": 4477,
      "adow.": 4478,
      "▁day.\n\nOne": 4479,
      "▁friend's": 4480,
      "▁fun.\n\nBut": 4481,
      "▁key.": 4482,
      "▁tray": 4483,
      "?\"\n\nSara": 4484,
      "▁\"Tom": 4485,
      "▁small.": 4486,
      "▁fresh": 4487,
      "▁moment,": 4488,
      "▁spoon.": 4489,
      "▁popular": 4490,
      "▁God": 4491,
      "▁teeth.": 4492,
      "▁donaEURTMt": 4493,
      "aroo": 4494,
      "ath": 4495,
      "▁\"F": 4496,
      "▁Let": 4497,
      "▁so,": 4498,
      "▁kang": 4499,
      "▁body": 4500,
      "▁Alex": 4501,
      "▁man's": 4502,
      "▁Where": 4503,
      "oney,": 4504,
      "▁meadow": 4505,
      "▁coins": 4506,
      "▁skill": 4507,
      "▁train.": 4508,
      ".\"\n\nSam": 4509,
      "▁wipe": 4510,
      "▁organized": 4511,
      "▁celebr": 4512,
      "▁solve": 4513,
      "▁kangaroo": 4514,
      "kes.": 4515,
      "ually": 4516,
      "▁cord": 4517,
      "▁dug": 4518,
      "▁pair": 4519,
      "▁hero": 4520,
      "▁\"They": 4521,
      "▁ribb": 4522,
      "▁Mimi": 4523,
      "ages": 4524,
      "▁good,": 4525,
      "▁origin": 4526,
      "▁books,": 4527,
      "▁soft.": 4528,
      "avid": 4529,
      "▁treat.": 4530,
      "▁town,": 4531,
      "!\"\n\nSo": 4532,
      "▁carrying": 4533,
      "▁Joe.": 4534,
      "▁gloomy": 4535,
      "▁aer": 4536,
      "▁ped": 4537,
      "▁Sh": 4538,
      "▁kis": 4539,
      "▁reward": 4540,
      "▁repe": 4541,
      "opl": 4542,
      "▁boy's": 4543,
      "▁coffe": 4544,
      "▁museum": 4545,
      ".\"\n\nBut": 4546,
      "▁tap": 4547,
      "▁ador": 4548,
      "▁impat": 4549,
      "▁baby.": 4550,
      "▁thanks": 4551,
      "▁Joey": 4552,
      "▁jeep": 4553,
      "▁grabs": 4554,
      "▁filth": 4555,
      "▁insist": 4556,
      "▁hunter": 4557,
      "-year-old": 4558,
      "▁octopus": 4559,
      "▁destroy": 4560,
      "▁aeropl": 4561,
      "ee,": 4562,
      "ince": 4563,
      "▁furn": 4564,
      "▁cone": 4565,
      "▁dizzy": 4566,
      "ory": 4567,
      "▁it.\n\nOne": 4568,
      "▁capt": 4569,
      "▁what's": 4570,
      ".\"\n\nTim": 4571,
      "ucked": 4572,
      "▁trop": 4573,
      "▁mole": 4574,
      "▁loudly": 4575,
      "▁raven": 4576,
      "▁aEURoeYou": 4577,
      "▁cleaning": 4578,
      "▁eyes,": 4579,
      "aEURTMm": 4580,
      "▁crane": 4581,
      "▁reading": 4582,
      "▁safe,": 4583,
      "▁agreed,": 4584,
      "▁bigger.": 4585,
      "▁grateful.": 4586,
      "▁nod.": 4587,
      "▁serious": 4588,
      "▁furnit": 4589,
      "under": 4590,
      "▁sent": 4591,
      "▁ot": 4592,
      "ary.": 4593,
      "▁Bella": 4594,
      "▁saw.": 4595,
      "▁chubby": 4596,
      "?\"\n\nMom": 4597,
      "▁eng": 4598,
      "▁aEUR\"": 4599,
      "▁uncle": 4600,
      "▁aftern": 4601,
      "▁here?\"": 4602,
      "ever,": 4603,
      "?\"\n\n\"Yes,": 4604,
      "▁naughty.": 4605,
      "▁nods": 4606,
      "▁barking": 4607,
      "▁enth": 4608,
      "▁feathers": 4609,
      "▁oven.": 4610,
      "▁garage.": 4611,
      ".\n\n\"Tom,": 4612,
      "▁trophy": 4613,
      "ccol": 4614,
      "ses": 4615,
      "▁super": 4616,
      "▁do?\"": 4617,
      "▁other's": 4618,
      "▁hock": 4619,
      "▁quite": 4620,
      ".\n\nMolly": 4621,
      "▁country": 4622,
      "▁bored": 4623,
      "▁phone.": 4624,
      "▁stud": 4625,
      "▁appeared.": 4626,
      "▁came.": 4627,
      "▁\"Please": 4628,
      "▁crystal": 4629,
      "▁viol": 4630,
      "▁enthus": 4631,
      "aked": 4632,
      "azz": 4633,
      "lice": 4634,
      "▁task": 4635,
      "▁wire": 4636,
      "omob": 4637,
      "ooped": 4638,
      "▁too.\"": 4639,
      "▁Timmy,": 4640,
      "▁Cl": 4641,
      "▁broccol": 4642,
      "▁sandbox": 4643,
      "▁pushing": 4644,
      "ampoo": 4645,
      "▁sailor": 4646,
      "▁growing": 4647,
      "▁bathroom": 4648,
      "▁zoomed": 4649,
      "▁support": 4650,
      "▁TV.": 4651,
      "▁jacket": 4652,
      "▁lawy": 4653,
      "▁flexible": 4654,
      "\n\"": 4655,
      "▁er": 4656,
      "▁base": 4657,
      "▁pist": 4658,
      "▁goose": 4659,
      "▁sauce": 4660,
      "▁in,": 4661,
      "▁times": 4662,
      "▁go!\"": 4663,
      "▁boot": 4664,
      "▁root": 4665,
      "▁\"If": 4666,
      "▁nowhere": 4667,
      "▁apple.": 4668,
      "▁magaz": 4669,
      "▁stops": 4670,
      "▁paid": 4671,
      "▁neighbour": 4672,
      "▁hello.": 4673,
      "▁sandwic": 4674,
      "▁tools": 4675,
      "▁vegetables": 4676,
      "▁sweet.": 4677,
      "▁pistol": 4678,
      "awn": 4679,
      "▁tem": 4680,
      "▁bet": 4681,
      "▁bur": 4682,
      "▁mama": 4683,
      "▁Sally.": 4684,
      "▁us.\"\n\n": 4685,
      "▁yawn": 4686,
      "▁had.": 4687,
      "▁lip": 4688,
      "▁lion.": 4689,
      "▁Jerry": 4690,
      "▁knot": 4691,
      "▁Tommy.": 4692,
      "▁cat,": 4693,
      "▁run,": 4694,
      "▁energ": 4695,
      "▁Rob": 4696,
      "▁brave,": 4697,
      "▁hoping": 4698,
      "▁shoes.": 4699,
      "▁songs": 4700,
      "▁pot.": 4701,
      "▁cheese.": 4702,
      "▁imagined": 4703,
      "▁Ste": 4704,
      "▁expensive.": 4705,
      "▁drops": 4706,
      "▁beetle": 4707,
      "▁bitter": 4708,
      "▁automob": 4709,
      "ness.": 4710,
      "sh.": 4711,
      "▁Sophie": 4712,
      "▁shampoo": 4713,
      "▁\n\nD": 4714,
      "▁him.\n\nThe": 4715,
      "▁did,": 4716,
      "▁lear": 4717,
      "▁rod": 4718,
      "aches": 4719,
      "▁sung": 4720,
      "▁couldn't.": 4721,
      "▁checked": 4722,
      "▁Bobo": 4723,
      "▁curious,": 4724,
      "▁given": 4725,
      ".\n\n\"Of": 4726,
      "▁attach": 4727,
      "▁welcome": 4728,
      "▁market": 4729,
      "▁distant": 4730,
      "▁\"Now": 4731,
      "▁spoke": 4732,
      "▁zoo.": 4733,
      "▁jellyfish": 4734,
      "▁intelligent": 4735,
      "Bob": 4736,
      "cy": 4737,
      "ano": 4738,
      "▁do,": 4739,
      "htub": 4740,
      "▁leash": 4741,
      "ass.": 4742,
      "▁sadly": 4743,
      "▁thoughtful": 4744,
      "!\"\n\nM": 4745,
      "▁strugg": 4746,
      "▁fine": 4747,
      "▁aEURoeThat": 4748,
      "▁listening": 4749,
      "▁amazing.": 4750,
      "▁stronger": 4751,
      "▁tripped": 4752,
      "▁triang": 4753,
      "▁\"How": 4754,
      "▁bathtub": 4755,
      "▁laughs": 4756,
      "▁snowman.": 4757,
      "▁ceil": 4758,
      "▁organiz": 4759,
      "▁pool.": 4760,
      "▁ahead": 4761,
      "▁nurse": 4762,
      "▁pumpkin": 4763,
      "▁sudden,": 4764,
      "▁original": 4765,
      "▁learnt": 4766,
      "▁sing.": 4767,
      "▁sym": 4768,
      "inking": 4769,
      "it.": 4770,
      "▁pow": 4771,
      "▁ride.": 4772,
      "▁Once,": 4773,
      "▁Jess": 4774,
      "▁starting": 4775,
      "▁meal": 4776,
      "▁found.": 4777,
      "▁Eventually,": 4778,
      "▁find.": 4779,
      ".\n\nAnd": 4780,
      "▁best.": 4781,
      "▁glue": 4782,
      "▁wind.": 4783,
      "▁kite.": 4784,
      "▁pushes": 4785,
      "▁carefully.": 4786,
      "▁counting": 4787,
      "▁idea,": 4788,
      "▁early": 4789,
      "▁aEURoeWhat": 4790,
      "▁humble": 4791,
      "iction": 4792,
      "▁truth": 4793,
      "▁mushroom": 4794,
      "▁cricket": 4795,
      "lass": 4796,
      "▁bone": 4797,
      "▁dear": 4798,
      "▁diction": 4799,
      "ater,": 4800,
      ".\n\nR": 4801,
      "llie": 4802,
      "▁yarn": 4803,
      "▁backpack": 4804,
      "rosc": 4805,
      "▁\"Who": 4806,
      "▁Everything": 4807,
      "▁hurts": 4808,
      "▁Ros": 4809,
      "▁useful": 4810,
      "▁pulls": 4811,
      "▁patch": 4812,
      ".\n\nMum": 4813,
      "▁top,": 4814,
      "▁pengu": 4815,
      "▁second": 4816,
      "▁\n\nMax": 4817,
      "▁buttons": 4818,
      "▁eggs": 4819,
      "▁stretched": 4820,
      "▁pirate": 4821,
      "▁nervous": 4822,
      "▁ordinary": 4823,
      "▁microsc": 4824,
      "Qu": 4825,
      "ait": 4826,
      "bul": 4827,
      "gust": 4828,
      "ible.": 4829,
      "▁ir": 4830,
      "▁hoop": 4831,
      "ay,": 4832,
      "irt.": 4833,
      "stri": 4834,
      "▁happen.": 4835,
      "urb": 4836,
      "▁alar": 4837,
      "▁coco": 4838,
      "▁hugg": 4839,
      "▁swing,": 4840,
      "▁louder": 4841,
      "▁shouldn't": 4842,
      "▁bread.": 4843,
      "▁disgust": 4844,
      "▁kitchen,": 4845,
      "▁brothers": 4846,
      "▁dirt.": 4847,
      "▁tightly.": 4848,
      "▁doctor.": 4849,
      ".\n\n\"Are": 4850,
      "▁bracelet": 4851,
      "▁healthy.": 4852,
      "uby": 4853,
      "▁thunder": 4854,
      "▁Are": 4855,
      "fully": 4856,
      "▁space": 4857,
      "▁scold": 4858,
      "▁vine": 4859,
      "▁older": 4860,
      "▁excitedly": 4861,
      "▁laughed,": 4862,
      "▁impro": 4863,
      "▁firepl": 4864,
      "▁himself,": 4865,
      "▁smells": 4866,
      "▁lights": 4867,
      "▁dinner,": 4868,
      "▁disturb": 4869,
      "▁incre": 4870,
      "▁salad": 4871,
      "▁impressive": 4872,
      "▁human": 4873,
      "▁circles": 4874,
      "▁hipp": 4875,
      "▁Henry": 4876,
      "▁hadn't": 4877,
      "▁spinning": 4878,
      ".\"\n\nHer": 4879,
      "▁excitement.": 4880,
      "▁jumps": 4881,
      "▁Polly": 4882,
      "▁trucks": 4883,
      "▁firework": 4884,
      "▁walls": 4885,
      "▁point": 4886,
      "▁fall.": 4887,
      "▁rainbow.": 4888,
      "▁organize": 4889,
      "▁steps": 4890,
      "▁film": 4891,
      "▁otter": 4892,
      "▁sunglass": 4893,
      "▁tub": 4894,
      "▁sle": 4895,
      "ily,": 4896,
      "unch": 4897,
      "▁shakes": 4898,
      "▁Mike": 4899,
      "aled": 4900,
      ".\n\n\"R": 4901,
      "▁Mia,": 4902,
      "!\n\nS": 4903,
      "!\n\nHe": 4904,
      "hisk": 4905,
      "▁ambul": 4906,
      "bol": 4907,
      "▁bug.": 4908,
      "▁apples.": 4909,
      "▁throwing": 4910,
      "▁leg.": 4911,
      "▁shop.": 4912,
      "▁relieved.": 4913,
      "▁minutes": 4914,
      "▁leaned": 4915,
      "▁tunnel": 4916,
      "▁deaf": 4917,
      "ron": 4918,
      "sit": 4919,
      "▁bicy": 4920,
      "▁fle": 4921,
      "▁mild": 4922,
      "▁\"C": 4923,
      "▁big.": 4924,
      "▁jar.": 4925,
      ".\n\n\"Come": 4926,
      "▁chur": 4927,
      "▁chasing": 4928,
      "▁true": 4929,
      "▁Jack's": 4930,
      "▁beauty": 4931,
      "▁cub": 4932,
      "▁papers": 4933,
      "▁steak": 4934,
      "▁fur.": 4935,
      "▁please?\"": 4936,
      "▁teacher.": 4937,
      "▁higher.": 4938,
      "▁missing": 4939,
      "▁finger.": 4940,
      "▁fishing": 4941,
      "▁branches": 4942,
      "▁chirp": 4943,
      "▁symbol": 4944,
      "Yes": 4945,
      "der.": 4946,
      "ling.": 4947,
      "night": 4948,
      "▁kay": 4949,
      "▁too!": 4950,
      "▁carp": 4951,
      "▁putting": 4952,
      "▁again.\"": 4953,
      "▁swamp": 4954,
      "▁balls": 4955,
      "▁handle": 4956,
      "▁sun,": 4957,
      "▁quack": 4958,
      "▁appro": 4959,
      "▁fish,": 4960,
      "▁path.": 4961,
      "▁singing.": 4962,
      "▁stared": 4963,
      "▁Inside,": 4964,
      "▁balloon.": 4965,
      "▁laughing.": 4966,
      "▁practiced": 4967,
      "▁football": 4968,
      ".\n\n\"Good": 4969,
      "▁oyster": 4970,
      "▁kiss.": 4971,
      "▁broccoli": 4972,
      "▁ax": 4973,
      "▁wool": 4974,
      "▁hut": 4975,
      "ow!": 4976,
      "▁rice": 4977,
      "chie": 4978,
      "herman": 4979,
      "▁friend.\"": 4980,
      "ecause": 4981,
      "▁fun.\n\nOne": 4982,
      "▁flies": 4983,
      "▁flapped": 4984,
      "▁dog's": 4985,
      "▁much,": 4986,
      "ions": 4987,
      "▁harder": 4988,
      "▁aEURoeYes,": 4989,
      "▁trucks.": 4990,
      "▁stickers": 4991,
      "▁quickly.": 4992,
      "▁here,": 4993,
      "▁baking": 4994,
      "▁bedroom.": 4995,
      "▁planes": 4996,
      "▁welcome.": 4997,
      "▁machine.": 4998,
      "▁mud.": 4999,
      "▁happiness": 5000,
      "▁grown-up": 5001,
      "▁Grandpa": 5002,
      "▁captain": 5003,
      "ge,": 5004,
      "k,": 5005,
      "▁waff": 5006,
      "▁fountain": 5007,
      "▁plate.": 5008,
      "chair": 5009,
      "▁neat": 5010,
      "▁is:": 5011,
      "▁happy.\n\nThe": 5012,
      "▁meadow.": 5013,
      "▁together.\n\nOne": 5014,
      "▁laund": 5015,
      "▁vac": 5016,
      "▁grap": 5017,
      "▁doll,": 5018,
      "ation,": 5019,
      "▁Kat": 5020,
      "▁treats.": 5021,
      "▁corner.": 5022,
      "▁couch.": 5023,
      "▁courage": 5024,
      "▁afraid.": 5025,
      "▁parade": 5026,
      "▁succe": 5027,
      "▁advice": 5028,
      "▁fragile": 5029,
      "▁refused": 5030,
      "▁clumsy": 5031,
      "aby": 5032,
      "lid": 5033,
      "▁tur": 5034,
      "▁toil": 5035,
      "erc": 5036,
      "▁Tina": 5037,
      "▁ostri": 5038,
      "▁hall": 5039,
      "▁dove": 5040,
      ".\n\n\"But": 5041,
      "▁brus": 5042,
      "▁starts": 5043,
      "?\".": 5044,
      "▁better,": 5045,
      "▁flower,": 5046,
      "▁ways": 5047,
      "▁leave.": 5048,
      "astic": 5049,
      "▁hat,": 5050,
      "▁answered": 5051,
      "▁snacks.": 5052,
      "▁school,": 5053,
      "▁incl": 5054,
      "▁numbers": 5055,
      "▁insect": 5056,
      "▁tornado": 5057,
      "▁fridge": 5058,
      ".\n\nWhile": 5059,
      "▁attractive": 5060,
      "▁helicopter": 5061,
      "uzz": 5062,
      "▁suff": 5063,
      "▁pony": 5064,
      "▁stom": 5065,
      "▁shield": 5066,
      "▁locked": 5067,
      "icer": 5068,
      "▁spell": 5069,
      "▁knob": 5070,
      "▁cap": 5071,
      "▁made.": 5072,
      "▁press": 5073,
      "▁true.": 5074,
      "▁holid": 5075,
      "▁special,": 5076,
      "uct": 5077,
      "▁greed": 5078,
      "▁glove": 5079,
      "▁own.": 5080,
      "▁Ro": 5081,
      "▁left.": 5082,
      "▁me.\"\n\n": 5083,
      "▁whistle.": 5084,
      "▁forward,": 5085,
      "ert.": 5086,
      "▁gro": 5087,
      "▁saus": 5088,
      "lly,": 5089,
      ".\n\n\"P": 5090,
      "icy.": 5091,
      "▁alert": 5092,
      "▁Whisk": 5093,
      "▁rang": 5094,
      ".\"\n\nA": 5095,
      "▁chim": 5096,
      "▁anyone.": 5097,
      "?\"\n\nHis": 5098,
      "iast": 5099,
      "▁Jack,": 5100,
      "▁trash": 5101,
      "▁Lucy's": 5102,
      "▁before,": 5103,
      "▁ducks.": 5104,
      "▁judge": 5105,
      "▁boring.": 5106,
      "▁throws": 5107,
      "▁bandage": 5108,
      "▁\n\nLucy": 5109,
      "▁searching": 5110,
      "▁golden": 5111,
      "immy,": 5112,
      "▁bounced": 5113,
      "▁silver": 5114,
      "▁pigeon": 5115,
      "▁enthusiast": 5116,
      ".\n\nP": 5117,
      "ess,": 5118,
      "▁Hel": 5119,
      "▁yach": 5120,
      "▁happy.\n\nBut": 5121,
      "▁novel": 5122,
      "▁asked.\n\n\"I": 5123,
      "▁feet.": 5124,
      "▁meas": 5125,
      "▁mule": 5126,
      "▁yours.": 5127,
      "▁office": 5128,
      "▁bury": 5129,
      "▁beautiful,": 5130,
      "▁acorn": 5131,
      "▁sleepy": 5132,
      "▁armchair": 5133,
      "▁doing?": 5134,
      "▁cries.": 5135,
      "▁rolling": 5136,
      "▁sprink": 5137,
      ".\n\nSarah": 5138,
      "▁fingers": 5139,
      "▁basketball": 5140,
      "▁flute": 5141,
      "▁fisherman": 5142,
      ".\n\n\"Don't": 5143,
      "▁complain": 5144,
      "ich.": 5145,
      "ser": 5146,
      "ves,": 5147,
      "▁tent.": 5148,
      "▁itch": 5149,
      "▁beak": 5150,
      "▁roof": 5151,
      ".\n\n\"N": 5152,
      "▁exerc": 5153,
      "▁cared": 5154,
      "▁skin": 5155,
      "▁kindness": 5156,
      "▁houses": 5157,
      "▁now!\"": 5158,
      "▁content": 5159,
      "▁sleeping": 5160,
      "▁arms.": 5161,
      "gging": 5162,
      "▁folder": 5163,
      "▁eagerly": 5164,
      "▁riding": 5165,
      "▁harmless": 5166,
      "▁envelope": 5167,
      "▁hockey": 5168,
      "▁chimne": 5169,
      "cast": 5170,
      "▁tip": 5171,
      "ino": 5172,
      "▁fought": 5173,
      "▁late": 5174,
      "ately": 5175,
      "▁Sandy": 5176,
      "▁lie": 5177,
      "▁like.": 5178,
      "rod": 5179,
      "▁kneel": 5180,
      "▁introd": 5181,
      "▁fog": 5182,
      "▁telev": 5183,
      "▁ground,": 5184,
      "▁owner.": 5185,
      "▁vol": 5186,
      "▁princess.": 5187,
      "▁cake,": 5188,
      "▁\n\nJust": 5189,
      "▁visited": 5190,
      "▁mustache": 5191,
      "▁Today": 5192,
      "▁prov": 5193,
      "▁easily": 5194,
      "▁hanging": 5195,
      "▁whisper": 5196,
      "▁sighed.": 5197,
      "▁movie": 5198,
      "▁shocked": 5199,
      "▁clapping": 5200,
      "▁dessert": 5201,
      "▁reindeer": 5202,
      "▁adorable": 5203,
      "▁bow.": 5204,
      "▁mitten": 5205,
      "▁por": 5206,
      "▁Harry": 5207,
      "amb": 5208,
      "▁Lilly": 5209,
      "▁want.": 5210,
      "▁too?\"": 5211,
      "▁Would": 5212,
      "age,": 5213,
      "▁newsp": 5214,
      "▁switch": 5215,
      "▁bear,": 5216,
      "▁nodded,": 5217,
      "▁happening": 5218,
      "▁broke.": 5219,
      "▁headed": 5220,
      "▁safely": 5221,
      "▁sandcast": 5222,
      "▁invest": 5223,
      "▁wheels": 5224,
      "▁salt": 5225,
      "▁answered,": 5226,
      "▁tomorrow.": 5227,
      "arlie": 5228,
      "▁regret": 5229,
      "▁stuffed": 5230,
      "▁promise.": 5231,
      "▁yogurt": 5232,
      "▁discuss": 5233,
      "▁newspap": 5234,
      "▁sum": 5235,
      "▁earth": 5236,
      "▁happy.\n\nOne": 5237,
      "▁seas": 5238,
      "ices": 5239,
      "!\".": 5240,
      "▁man,": 5241,
      "▁swung": 5242,
      "▁careless": 5243,
      "▁this.": 5244,
      "▁tried,": 5245,
      "▁dolls,": 5246,
      "▁party,": 5247,
      "▁crazy": 5248,
      "▁enough.": 5249,
      "▁\n\n\"I": 5250,
      "▁beach,": 5251,
      "▁everything.": 5252,
      "▁balloons": 5253,
      "▁fearful": 5254,
      "▁\"Yes!": 5255,
      "▁radish": 5256,
      "▁scratch": 5257,
      "▁separate": 5258,
      "▁thief": 5259,
      "▁celebrate": 5260,
      "▁investig": 5261,
      "ex": 5262,
      "mm": 5263,
      "roph": 5264,
      "shed": 5265,
      "▁tooth": 5266,
      "▁five": 5267,
      "itch.": 5268,
      "▁laser": 5269,
      "ately,": 5270,
      "▁Lily!\"": 5271,
      "▁looked,": 5272,
      "▁others,": 5273,
      "est.": 5274,
      "▁David": 5275,
      "▁blue,": 5276,
      "▁vroom": 5277,
      "▁myself": 5278,
      ".\n\nSuddenly": 5279,
      "▁twink": 5280,
      "▁skirt": 5281,
      "▁boxes": 5282,
      "▁animal.": 5283,
      "▁wait.": 5284,
      "▁thread": 5285,
      "▁unh": 5286,
      ".\n\nJane": 5287,
      "▁bath.": 5288,
      "▁shovel": 5289,
      "▁clouds.": 5290,
      ".\"\n\nSo": 5291,
      "▁Jill.": 5292,
      "▁Today,": 5293,
      "▁spring": 5294,
      "▁wags": 5295,
      ".\n\nTimmy's": 5296,
      "▁kingdom": 5297,
      "▁necklace.": 5298,
      "▁avail": 5299,
      "▁gasped": 5300,
      "▁wandered": 5301,
      "▁microph": 5302,
      "▁rescue": 5303,
      "▁speed": 5304,
      "▁muffin": 5305,
      "▁slept": 5306,
      "ha": 5307,
      "y!": 5308,
      "▁tucked": 5309,
      "▁city": 5310,
      "aring": 5311,
      "ow!\"": 5312,
      "▁yield": 5313,
      "ries.": 5314,
      "▁Lily?\"": 5315,
      "▁Maggie": 5316,
      "▁Millie": 5317,
      "▁reve": 5318,
      ".\"\n\nJ": 5319,
      "▁friends.\n\nOne": 5320,
      "▁slow.": 5321,
      "▁peek": 5322,
      "▁buzz": 5323,
      "ipe": 5324,
      "▁now.\"": 5325,
      "▁walk,": 5326,
      "▁content.": 5327,
      "▁swim.": 5328,
      "▁dreams": 5329,
      "▁messy.": 5330,
      "▁land.": 5331,
      "▁bookshe": 5332,
      "▁shells": 5333,
      "▁snake.": 5334,
      "▁meant,": 5335,
      "▁hospital.": 5336,
      "▁statue": 5337,
      "▁monster.": 5338,
      "ye,": 5339,
      "▁cel": 5340,
      "▁mel": 5341,
      "▁red,": 5342,
      "▁whip": 5343,
      "▁isn't": 5344,
      "▁cozy.": 5345,
      "▁again.\n\nThe": 5346,
      "aces": 5347,
      "▁prevent": 5348,
      ".\n\nSue": 5349,
      "▁Sara,": 5350,
      "▁cry,": 5351,
      "▁busy.": 5352,
      "▁message": 5353,
      "▁elephant.": 5354,
      "▁ears": 5355,
      "It's": 5356,
      "▁shopkeeper": 5357,
      "▁apart": 5358,
      "▁surre": 5359,
      "▁\n\nLater": 5360,
      "▁pants": 5361,
      "▁library": 5362,
      "▁uncomfortable": 5363,
      "▁helmet": 5364,
      "▁celebrated": 5365,
      "▁avocado": 5366,
      "?aEUR\n\nThe": 5367,
      "ges": 5368,
      "ween": 5369,
      "▁win.": 5370,
      "▁hide.": 5371,
      "▁Bear": 5372,
      "▁short": 5373,
      "▁\n\nOn": 5374,
      "▁factor": 5375,
      "▁ran,": 5376,
      "agre": 5377,
      "arah": 5378,
      "!\"\n\nJ": 5379,
      "!\"\n\nMom": 5380,
      "▁\"Timmy,": 5381,
      "▁nicely": 5382,
      "▁disagre": 5383,
      "▁trail": 5384,
      "▁cookie.": 5385,
      "▁belt": 5386,
      "▁math": 5387,
      "▁hill,": 5388,
      "▁sleepy.": 5389,
      "▁screamed.": 5390,
      "wards,": 5391,
      "▁mistake": 5392,
      "▁creatures": 5393,
      "▁chest.": 5394,
      "▁bubbles": 5395,
      "▁sprayed": 5396,
      "▁competitive": 5397,
      "▁anxious": 5398,
      "▁\"Well,": 5399,
      "▁rubber": 5400,
      "▁envious": 5401,
      "▁between": 5402,
      "▁volc": 5403,
      "▁bookshelf": 5404,
      "▁hive": 5405,
      "▁men": 5406,
      "ate,": 5407,
      "▁have.": 5408,
      "▁thumb": 5409,
      "▁Look": 5410,
      "▁something,": 5411,
      ".\n\n\"Who": 5412,
      "▁hopes": 5413,
      "▁brother,": 5414,
      "▁\n\"": 5415,
      "▁full.": 5416,
      "▁gentle.": 5417,
      "▁visit.": 5418,
      "▁delicious!": 5419,
      "▁belongs": 5420,
      "▁cheered.": 5421,
      "▁surround": 5422,
      "▁slides": 5423,
      "▁model": 5424,
      "▁playground.": 5425,
      "▁berries": 5426,
      "arian": 5427,
      "▁either": 5428,
      "▁stro": 5429,
      "▁soc": 5430,
      "▁Mo": 5431,
      "▁asht": 5432,
      "▁alive": 5433,
      "▁fauc": 5434,
      "▁meat": 5435,
      "▁flav": 5436,
      "▁popped": 5437,
      "▁prepar": 5438,
      "▁cube": 5439,
      "▁displ": 5440,
      ".\n\n\"Where": 5441,
      "▁drawer": 5442,
      "▁pond,": 5443,
      "ations": 5444,
      "▁cute.": 5445,
      "▁voice,": 5446,
      "▁polish": 5447,
      "▁ears.": 5448,
      "▁fruit.": 5449,
      "▁neck.": 5450,
      "▁phot": 5451,
      "▁barks": 5452,
      "▁cardboard": 5453,
      "▁freez": 5454,
      "▁bridge.": 5455,
      "▁radi": 5456,
      "time": 5457,
      "▁lawyer": 5458,
      "mend": 5459,
      "▁line.": 5460,
      "▁dive": 5461,
      "▁mop": 5462,
      "▁pand": 5463,
      "▁itaEURTMs": 5464,
      "lend": 5465,
      "▁inf": 5466,
      "ugged": 5467,
      "▁Ben,\"": 5468,
      "▁allig": 5469,
      "▁seeing": 5470,
      "▁coat.": 5471,
      "▁grass,": 5472,
      "▁more,": 5473,
      "▁know,\"": 5474,
      "▁mommy's": 5475,
      "▁eaten": 5476,
      "▁needle": 5477,
      "▁Pap": 5478,
      "▁zipped": 5479,
      "▁fair.": 5480,
      "▁lands": 5481,
      "Anna,": 5482,
      "▁Fluffy.": 5483,
      "▁pinch": 5484,
      "▁apologized": 5485,
      "▁sniffed": 5486,
      "▁cereal": 5487,
      "▁dolphin": 5488,
      "OK,": 5489,
      "ment.": 5490,
      "ines": 5491,
      "▁Th": 5492,
      "▁oil": 5493,
      "▁said.\n\nMom": 5494,
      "▁plastic": 5495,
      "▁Bet": 5496,
      "▁some.": 5497,
      "▁seat.": 5498,
      "▁spir": 5499,
      "▁claw": 5500,
      "▁alr": 5501,
      "ifl": 5502,
      "mand": 5503,
      "▁slip": 5504,
      "ucture": 5505,
      "▁structure": 5506,
      "▁remain": 5507,
      "▁bright,": 5508,
      "▁kids,": 5509,
      ".\n\nJoe": 5510,
      "▁airpl": 5511,
      ".\n\nTommy": 5512,
      "▁\"Sorry,": 5513,
      "▁grandma's": 5514,
      "▁marry": 5515,
      "▁falling": 5516,
      "▁cupboard": 5517,
      "▁barrel": 5518,
      "▁respectful": 5519,
      ".\n\nTo": 5520,
      "▁mountain.": 5521,
      "▁lively": 5522,
      "▁roared": 5523,
      "▁frustrated.": 5524,
      "▁blowing": 5525,
      "▁sink.": 5526,
      "▁disappointed.": 5527,
      "▁themselves": 5528,
      "▁computer": 5529,
      "▁video": 5530,
      "▁alarm": 5531,
      "▁oak": 5532,
      "▁staff": 5533,
      "▁ones.": 5534,
      "▁days,": 5535,
      "▁weigh": 5536,
      "▁goal": 5537,
      "▁jail": 5538,
      "asis": 5539,
      "▁worth": 5540,
      "▁chance": 5541,
      "▁hand,": 5542,
      "▁leaf.": 5543,
      "▁beha": 5544,
      "▁wallet": 5545,
      "▁bikes": 5546,
      "▁\n\n\"W": 5547,
      "▁squirrel.": 5548,
      "▁idea!": 5549,
      "▁collar": 5550,
      "▁Mrs.": 5551,
      "▁obser": 5552,
      "▁grandp": 5553,
      "▁village.": 5554,
      "▁Maria": 5555,
      "▁Bunny": 5556,
      "▁strip": 5557,
      "▁scooter": 5558,
      "▁persistent": 5559,
      "▁compassionate": 5560,
      "▁superher": 5561,
      "▁Help": 5562,
      "mma": 5563,
      "▁tax": 5564,
      "▁be.": 5565,
      "▁waving": 5566,
      "▁oat": 5567,
      "key.": 5568,
      "▁rever": 5569,
      "▁expect": 5570,
      "▁Will": 5571,
      "▁makeup": 5572,
      "▁chang": 5573,
      ".\n\nAmy": 5574,
      "▁\"Let": 5575,
      "▁climbing": 5576,
      "▁sticker": 5577,
      "▁following": 5578,
      "▁bright.": 5579,
      "ult.": 5580,
      "▁crib": 5581,
      "▁dragon.": 5582,
      "▁missile": 5583,
      "▁pastry": 5584,
      "▁practic": 5585,
      "▁tuna": 5586,
      "▁picnic.": 5587,
      "▁questions": 5588,
      "▁settled": 5589,
      "▁cushion": 5590,
      "Let's": 5591,
      "▁tore": 5592,
      "▁fan": 5593,
      "▁he'd": 5594,
      "▁me,\"": 5595,
      "▁Tony": 5596,
      "▁oasis": 5597,
      "▁you'll": 5598,
      "stead": 5599,
      "▁Budd": 5600,
      "▁licks": 5601,
      "▁kitt": 5602,
      "▁reaches": 5603,
      "▁\n\naEURoe": 5604,
      "▁somed": 5605,
      "▁An": 5606,
      "▁helpful.": 5607,
      "▁scale": 5608,
      "▁poke": 5609,
      "▁grill": 5610,
      "▁come.": 5611,
      "▁fast,": 5612,
      "▁shine": 5613,
      "▁angry,": 5614,
      "▁teleph": 5615,
      "▁closet": 5616,
      "▁sounds.": 5617,
      "▁trains": 5618,
      "▁firef": 5619,
      "▁steam": 5620,
      "▁lightning": 5621,
      "▁star.": 5622,
      "▁points": 5623,
      "commend": 5624,
      "▁face,": 5625,
      "▁napkin": 5626,
      "host": 5627,
      "▁enter": 5628,
      "▁crossed": 5629,
      "▁straight": 5630,
      "▁Zoe": 5631,
      "▁nature": 5632,
      "▁complete": 5633,
      "▁camera": 5634,
      "▁coffee": 5635,
      "ib": 5636,
      "▁ig": 5637,
      "▁tut": 5638,
      "▁bother": 5639,
      "ret.": 5640,
      "▁fet": 5641,
      "▁gate.": 5642,
      "▁Billy.": 5643,
      "unk.": 5644,
      "unately,": 5645,
      "chan": 5646,
      "▁recommend": 5647,
      "▁too,\"": 5648,
      "▁caul": 5649,
      "used": 5650,
      "▁quar": 5651,
      "▁calls": 5652,
      "▁sneak": 5653,
      "▁ended": 5654,
      "!\n\n\"": 5655,
      "▁color.": 5656,
      "▁follows": 5657,
      "▁boats": 5658,
      "▁bushes.": 5659,
      "▁pleas": 5660,
      "▁forgotten": 5661,
      "▁everywhere,": 5662,
      "▁journ": 5663,
      "▁present.": 5664,
      "▁trusted": 5665,
      "▁ignored": 5666,
      "▁imagination": 5667,
      "▁bumped": 5668,
      "▁zipper": 5669,
      "▁mineral": 5670,
      "▁mattress": 5671,
      "▁igloo": 5672,
      "▁caulifl": 5673,
      "\".\n\nThe": 5674,
      "wal": 5675,
      "▁size": 5676,
      "▁since": 5677,
      "\n\n\"": 5678,
      "▁gone,": 5679,
      ".\n\nH": 5680,
      "▁rh": 5681,
      "▁upstair": 5682,
      "▁\n\nW": 5683,
      "▁anch": 5684,
      "▁spear": 5685,
      "▁help!\"": 5686,
      "▁asked.\n\n\"Yes,": 5687,
      "▁me!": 5688,
      "▁learn.": 5689,
      "▁pepper": 5690,
      "▁talk.": 5691,
      "▁drawings": 5692,
      "▁mum,": 5693,
      "▁perfect.": 5694,
      "▁morning.": 5695,
      "▁exploring.": 5696,
      "▁Grandma.": 5697,
      "▁passport": 5698,
      "▁splashing": 5699,
      "▁Rex.": 5700,
      "▁flutter": 5701,
      "▁univers": 5702,
      "▁appreciate": 5703,
      "▁cactus": 5704,
      "▁aeroplane": 5705,
      "ium": 5706,
      "nam": 5707,
      "w!\"": 5708,
      "reck": 5709,
      "▁mask": 5710,
      "▁ghost": 5711,
      "▁Su": 5712,
      "ira": 5713,
      "▁\"E": 5714,
      "▁\"J": 5715,
      "▁Lola": 5716,
      "▁that!\"": 5717,
      "▁player": 5718,
      "▁weap": 5719,
      "▁lives": 5720,
      "▁doing,": 5721,
      "▁\n\nIt": 5722,
      "▁mechan": 5723,
      "▁together!\"": 5724,
      ".\"\n\nM": 5725,
      "▁prop": 5726,
      "▁exciting.": 5727,
      "▁dogg": 5728,
      "▁hose.": 5729,
      "?\"\n\nM": 5730,
      "▁Mia's": 5731,
      "▁\n\nSam": 5732,
      "▁ready,": 5733,
      "▁safet": 5734,
      "▁dark,": 5735,
      "▁game,": 5736,
      "▁windows": 5737,
      "ggy": 5738,
      "▁sidewal": 5739,
      "▁invite": 5740,
      "▁horse.": 5741,
      "▁puddle.": 5742,
      "▁supply": 5743,
      "▁gasp": 5744,
      "▁\n\nThen,": 5745,
      "▁hammer": 5746,
      "▁butterflies": 5747,
      "▁trumpet": 5748,
      "▁\"Tom,": 5749,
      "▁baseball": 5750,
      "▁approached": 5751,
      "▁enthusiastic": 5752,
      "▁Papa": 5753,
      "▁taxi": 5754,
      "▁rhino": 5755,
      "▁card.": 5756,
      "▁dizz": 5757,
      "▁gear": 5758,
      "▁weather": 5759,
      "▁happier": 5760,
      "▁note": 5761,
      "\"\n\nMom": 5762,
      "▁need.": 5763,
      "▁\n\nP": 5764,
      "▁jet": 5765,
      "▁calend": 5766,
      "ash.": 5767,
      "▁coin.": 5768,
      "▁Each": 5769,
      "uckily,": 5770,
      "ction": 5771,
      "▁block.": 5772,
      "▁fairy.": 5773,
      "▁place,": 5774,
      "▁pie.": 5775,
      "▁fox.": 5776,
      "medi": 5777,
      "▁along.": 5778,
      "▁lake,": 5779,
      "▁harsh": 5780,
      "▁flag.": 5781,
      "▁\n\nEvery": 5782,
      "▁embarrassed.": 5783,
      "▁punish": 5784,
      "▁iron": 5785,
      "▁church": 5786,
      "▁succeed": 5787,
      "▁grocer": 5788,
      "▁display": 5789,
      "mother": 5790,
      "▁said.\n\n\"Yes,": 5791,
      "▁rhy": 5792,
      "▁stage": 5793,
      "▁fort": 5794,
      "▁shirt.": 5795,
      "▁could,": 5796,
      "▁case": 5797,
      "▁away!": 5798,
      "▁bul": 5799,
      "▁ending.": 5800,
      "▁waited.": 5801,
      "▁book,": 5802,
      "▁towers": 5803,
      "▁fell.": 5804,
      "▁trip.": 5805,
      "▁woods,": 5806,
      "▁floor,": 5807,
      "▁streng": 5808,
      "▁attention": 5809,
      "s.\"\n\nLily": 5810,
      "▁meeting": 5811,
      "▁bathroom.": 5812,
      "▁apron": 5813,
      "▁letters": 5814,
      "▁mind.": 5815,
      "▁scissors.": 5816,
      "▁impatient": 5817,
      "▁afternoon": 5818,
      "▁lim": 5819,
      "▁dare": 5820,
      "▁mention": 5821,
      "▁waste": 5822,
      "▁played,": 5823,
      "▁Baby": 5824,
      "▁shoe": 5825,
      "▁Mitten": 5826,
      "▁ree": 5827,
      "▁cage": 5828,
      "▁manage": 5829,
      "▁flame": 5830,
      "▁holes": 5831,
      "▁laught": 5832,
      "▁ornam": 5833,
      "▁green.": 5834,
      "!\n\nBut": 5835,
      "▁adventure,": 5836,
      "▁dress,": 5837,
      "▁remember,": 5838,
      "▁\n\nSarah": 5839,
      "▁trave": 5840,
      "▁rules.": 5841,
      "▁brothers.": 5842,
      "▁candle": 5843,
      "▁fallen": 5844,
      "▁clothes,": 5845,
      "▁attic": 5846,
      "▁today,": 5847,
      "▁instr": 5848,
      "▁button.": 5849,
      "▁ladder.": 5850,
      "▁Sometimes,": 5851,
      "▁stairs": 5852,
      "▁seeds": 5853,
      "▁receive": 5854,
      "▁shelter": 5855,
      "▁scattered": 5856,
      "▁miserable": 5857,
      "▁powder": 5858,
      "▁scolded": 5859,
      "▁ambulance": 5860,
      "▁ostrich": 5861,
      "▁surrender": 5862,
      "▁rhinocer": 5863,
      "That's": 5864,
      "osed": 5865,
      "ring": 5866,
      "son": 5867,
      "▁achie": 5868,
      "▁sub": 5869,
      "▁dire": 5870,
      "▁hedge": 5871,
      "▁Tr": 5872,
      "▁beak.": 5873,
      "▁you.\"\n\nThe": 5874,
      "\"\n\nSara": 5875,
      "▁requ": 5876,
      "▁Its": 5877,
      ".\n\n\"Lily,": 5878,
      "▁scooped": 5879,
      "▁seek.": 5880,
      "▁grow.": 5881,
      "▁shiny,": 5882,
      "▁aEURoeH": 5883,
      "!\n\nWhen": 5884,
      "▁Please,": 5885,
      "▁warning": 5886,
      "▁Next": 5887,
      "▁Ra": 5888,
      "▁Ruby": 5889,
      "▁stronger.": 5890,
      "▁stopped,": 5891,
      "irst,": 5892,
      ".\n\n\"Why": 5893,
      "▁Mommy,": 5894,
      "▁bugs.": 5895,
      "▁plane.": 5896,
      "▁creative.": 5897,
      "▁attic.": 5898,
      "▁sandwich.": 5899,
      "▁teaching": 5900,
      "▁tears.": 5901,
      "▁empty.": 5902,
      "▁crawling": 5903,
      "achel": 5904,
      "▁strawberry": 5905,
      "▁guilty": 5906,
      "▁beamed": 5907,
      "▁improve": 5908,
      "▁flea": 5909,
      "oor": 5910,
      "▁sir": 5911,
      "▁sigh": 5912,
      "▁sight.": 5913,
      "▁tour": 5914,
      "▁hay": 5915,
      "▁said.\n\nShe": 5916,
      "▁weep": 5917,
      "▁we'll": 5918,
      "▁leop": 5919,
      "asc": 5920,
      "▁from.": 5921,
      "▁poss": 5922,
      "▁grinn": 5923,
      "?\"\n\nSam": 5924,
      "▁hands,": 5925,
      "▁colours": 5926,
      "▁happening.": 5927,
      "▁please,": 5928,
      "▁herself,": 5929,
      "▁Ollie": 5930,
      "▁growl": 5931,
      "▁package": 5932,
      "▁welcomed": 5933,
      "▁daughter.": 5934,
      "▁entered": 5935,
      "▁feathers.": 5936,
      "▁memories": 5937,
      "▁running.": 5938,
      "▁Un": 5939,
      "▁ribbon": 5940,
      "▁penguin": 5941,
      "▁yacht": 5942,
      "▁strength": 5943,
      "This": 5944,
      "ived": 5945,
      "pare": 5946,
      "▁wife": 5947,
      "▁fasc": 5948,
      "▁dang": 5949,
      "▁pine": 5950,
      "▁ow,": 5951,
      "▁her.\n\nOne": 5952,
      "raged": 5953,
      "▁loved.": 5954,
      "▁birdc": 5955,
      "▁vall": 5956,
      "▁vict": 5957,
      "▁poked": 5958,
      ".\n\nSpot": 5959,
      "▁finally,": 5960,
      "▁stove": 5961,
      "▁climb.": 5962,
      "aEURTMll": 5963,
      "▁Mommy!": 5964,
      "▁gently.": 5965,
      "▁dancer": 5966,
      "▁stuck.": 5967,
      "▁pasta": 5968,
      "▁easy.": 5969,
      "▁Remy": 5970,
      "▁\"Hey,": 5971,
      "▁\n\nTimmy's": 5972,
      "▁guitar.": 5973,
      "▁anywhere.": 5974,
      "▁engine": 5975,
      "▁violin": 5976,
      "▁disgusting": 5977,
      "▁hippo": 5978,
      "aceship": 5979,
      "▁fascin": 5980,
      "So,": 5981,
      "cle.": 5982,
      "mily": 5983,
      "r.": 5984,
      "▁sip": 5985,
      "▁during": 5986,
      "ari": 5987,
      "ise.": 5988,
      "▁Sund": 5989,
      "▁stad": 5990,
      "▁stone.": 5991,
      "▁Bets": 5992,
      "▁Me": 5993,
      "▁\n\nIn": 5994,
      "▁Jan": 5995,
      "▁Ben!\"": 5996,
      "ife.": 5997,
      "▁dogs.": 5998,
      "act": 5999,
      "▁two,": 6000,
      "▁buried": 6001,
      "▁loudly.": 6002,
      "▁rock,": 6003,
      "▁frame": 6004,
      "▁turn.": 6005,
      "▁Good": 6006,
      "▁appl": 6007,
      "▁strong,": 6008,
      "▁differen": 6009,
      "▁float": 6010,
      "▁understand,": 6011,
      "▁left,": 6012,
      "▁polite.": 6013,
      "▁plant.": 6014,
      "▁carrots.": 6015,
      "▁imagine": 6016,
      "▁balanc": 6017,
      "▁ignore": 6018,
      "▁prize": 6019,
      "▁happiness.": 6020,
      "▁palace": 6021,
      "▁squeezed": 6022,
      "▁accepted": 6023,
      "▁permiss": 6024,
      "▁troubled": 6025,
      "▁furniture": 6026,
      "▁fireplace": 6027,
      "▁kayak": 6028,
      "▁turkey": 6029,
      "▁alligator": 6030,
      "▁bulb": 6031,
      "▁stadium": 6032,
      "!aEUR\n\nThe": 6033,
      "▁wing.": 6034,
      "▁honey,": 6035,
      "▁mall": 6036,
      "▁said.\n\nHe": 6037,
      "am,": 6038,
      "▁hist": 6039,
      "▁Miss": 6040,
      "▁him!": 6041,
      "▁smile,": 6042,
      "▁spill": 6043,
      "iform": 6044,
      "▁coal": 6045,
      "▁vase.": 6046,
      "▁prepare": 6047,
      "▁ending": 6048,
      "▁keeping": 6049,
      "▁uniform": 6050,
      "▁sticks.": 6051,
      "aEURTMre": 6052,
      "▁trap": 6053,
      "▁goodbye,": 6054,
      "▁butterfly,": 6055,
      "▁\"Me": 6056,
      "▁secret.": 6057,
      "▁respons": 6058,
      "▁tidy.": 6059,
      "▁screen": 6060,
      "▁hurric": 6061,
      "▁barn.": 6062,
      "▁Danny": 6063,
      "▁repeat": 6064,
      "▁infant": 6065,
      "'ve": 6066,
      "dge.": 6067,
      "oved": 6068,
      "rm": 6069,
      "▁wreck": 6070,
      "ery.": 6071,
      "▁mass": 6072,
      ".\n\nK": 6073,
      "▁her.\n\nThe": 6074,
      "▁soil": 6075,
      "▁doing.": 6076,
      "allow": 6077,
      "▁\n\nF": 6078,
      "▁spaceship": 6079,
      "▁Who": 6080,
      "▁cob": 6081,
      "▁lotion": 6082,
      "▁prett": 6083,
      "▁hardly": 6084,
      "▁jump,": 6085,
      "▁aEURoeO": 6086,
      "▁happened,": 6087,
      "▁raining": 6088,
      "▁frost": 6089,
      "▁Instead": 6090,
      ".\n\n\"Oh,": 6091,
      "▁cup.": 6092,
      "▁interesting.": 6093,
      "▁lock.": 6094,
      "▁bell.": 6095,
      "▁crown.": 6096,
      "▁wishes": 6097,
      "▁spending": 6098,
      "▁exclaimed": 6099,
      "▁People": 6100,
      "▁hugged.": 6101,
      "▁rhyth": 6102,
      "ded": 6103,
      "▁Qu": 6104,
      "hell": 6105,
      ".\n\nDad": 6106,
      "▁Here,": 6107,
      "▁event": 6108,
      "▁elev": 6109,
      "▁said.\n\nBut": 6110,
      "▁said.\n\nBen": 6111,
      "▁ring.": 6112,
      "▁rope.": 6113,
      "▁sty": 6114,
      "▁kitty": 6115,
      "▁loop": 6116,
      "▁Ab": 6117,
      "▁Jul": 6118,
      "▁fun.\"": 6119,
      "▁Mom,\"": 6120,
      "▁dog!": 6121,
      "!\"\n\nHe": 6122,
      "?\"\n\nJ": 6123,
      "▁string.": 6124,
      "▁now?\"": 6125,
      "▁read.": 6126,
      "▁fireman": 6127,
      "▁behave": 6128,
      "▁parts": 6129,
      "▁\nOne": 6130,
      "▁break.": 6131,
      "▁OK,": 6132,
      "▁owl.": 6133,
      "▁earl": 6134,
      "▁bucket.": 6135,
      "▁\"There": 6136,
      "▁supposed": 6137,
      "▁hurry": 6138,
      "▁Annie": 6139,
      "▁brick": 6140,
      "▁aEURoeItaEURTMs": 6141,
      "▁filthy": 6142,
      "\",": 6143,
      "light.": 6144,
      "▁simp": 6145,
      "▁bill": 6146,
      "▁bang": 6147,
      "▁cell": 6148,
      "ision.": 6149,
      "▁red.": 6150,
      "▁Is": 6151,
      "▁\n\nN": 6152,
      ".\n\n\"The": 6153,
      "▁sport": 6154,
      "▁art": 6155,
      "▁What's": 6156,
      "▁laid": 6157,
      "▁vest": 6158,
      "▁look,": 6159,
      "▁\"Tim": 6160,
      "▁quit": 6161,
      "▁rail": 6162,
      "!\n\nOne": 6163,
      "▁bree": 6164,
      "▁rabbit,": 6165,
      "▁planet": 6166,
      "▁hotel": 6167,
      "▁fighting.": 6168,
      "▁mother.": 6169,
      "▁created": 6170,
      "▁explained,": 6171,
      "▁hits": 6172,
      "▁actually": 6173,
      "▁beef": 6174,
      "▁collected": 6175,
      "▁snap": 6176,
      "▁serve": 6177,
      "▁generous.": 6178,
      "▁questions.": 6179,
      "▁Charlie": 6180,
      "▁Before": 6181,
      "▁hurried": 6182,
      "▁magnet": 6183,
      "▁Clara": 6184,
      "▁carpet": 6185,
      "▁dizzy.": 6186,
      "▁subway": 6187,
      "'.": 6188,
      "mith": 6189,
      "weet": 6190,
      "▁ske": 6191,
      "▁wiz": 6192,
      "▁bin": 6193,
      "▁dried": 6194,
      "▁net.": 6195,
      "▁Squ": 6196,
      "▁Have": 6197,
      "▁sheet": 6198,
      "▁mom,\"": 6199,
      "▁for.": 6200,
      "icorn": 6201,
      "▁them.\n\nOne": 6202,
      "▁Jon": 6203,
      "gether,": 6204,
      "ages.": 6205,
      "▁chain": 6206,
      "▁veter": 6207,
      "!\"\n\nAnna": 6208,
      "▁friends.\"": 6209,
      "▁glo": 6210,
      "▁aEURoeD": 6211,
      "▁people's": 6212,
      "▁\"Your": 6213,
      "▁unicorn": 6214,
      "▁turns.": 6215,
      "▁adventure!": 6216,
      "▁pretty!\"": 6217,
      "▁crunch": 6218,
      ".\n\nJimmy": 6219,
      "▁lets": 6220,
      "▁dress-up": 6221,
      "▁compan": 6222,
      "▁believed": 6223,
      "fortunately,": 6224,
      ".\n\nBilly": 6225,
      "▁neighborhood": 6226,
      "▁\"Please,": 6227,
      "▁pirates": 6228,
      "▁nervous.": 6229,
      "▁jealous.": 6230,
      "▁fridge.": 6231,
      "▁tutor": 6232,
      "▁veterin": 6233,
      "..": 6234,
      "OK": 6235,
      "efore": 6236,
      "use": 6237,
      "web": 6238,
      "▁lugg": 6239,
      "▁pra": 6240,
      "▁it.\n\nBut": 6241,
      "eside": 6242,
      "▁fun,\"": 6243,
      "▁copper": 6244,
      "▁Mom?\"": 6245,
      "!\"\n\nHis": 6246,
      "▁things.\n\nOne": 6247,
      "▁moon.": 6248,
      "▁We'll": 6249,
      "▁strang": 6250,
      "▁louder.": 6251,
      "▁demand": 6252,
      "▁brighter": 6253,
      "▁yellow.": 6254,
      "▁letting": 6255,
      "▁paper,": 6256,
      "▁tricks": 6257,
      "▁restless": 6258,
      "▁\n\nJane": 6259,
      "▁building.": 6260,
      "▁castles": 6261,
      "▁grandmother": 6262,
      "▁discovery": 6263,
      "▁shell.": 6264,
      "▁sack.": 6265,
      "▁determin": 6266,
      "▁escape.": 6267,
      ".\n\n\"You're": 6268,
      "▁yourself.": 6269,
      "▁island.": 6270,
      "▁yoga": 6271,
      "▁breakfast.": 6272,
      "▁encouraged": 6273,
      "▁anyway.": 6274,
      "▁magazine": 6275,
      "▁sandwiches": 6276,
      "▁toilet": 6277,
      "▁Whiskers": 6278,
      "▁summer": 6279,
      "▁spirit": 6280,
      "▁mechanic": 6281,
      "mediately": 6282,
      "ses.": 6283,
      "xc": 6284,
      "zzy": 6285,
      "▁winn": 6286,
      "▁berry": 6287,
      "atch": 6288,
      "▁nation": 6289,
      "▁you.\"\n\nLily": 6290,
      "▁Buzz": 6291,
      "▁jazz": 6292,
      ".\"\n\nHe": 6293,
      "ax,": 6294,
      "▁moves": 6295,
      "▁crow": 6296,
      "▁blocks,": 6297,
      "▁Spot's": 6298,
      "▁floating": 6299,
      "▁swings,": 6300,
      "▁arrived.": 6301,
      "▁\n\n\"H": 6302,
      "▁sign.": 6303,
      "▁chewed": 6304,
      "▁jam.": 6305,
      "▁argue": 6306,
      "▁guilty.": 6307,
      "▁Rosie": 6308,
      "▁cocoa": 6309,
      "▁sunglasses": 6310,
      "▁cobweb": 6311,
      "▁skelet": 6312,
      "ward.": 6313,
      "▁wigg": 6314,
      "▁beside": 6315,
      "▁city.": 6316,
      "▁low": 6317,
      "▁port": 6318,
      "ense": 6319,
      "anna": 6320,
      "▁item": 6321,
      "▁eff": 6322,
      "▁\"y": 6323,
      "igail": 6324,
      "▁Lee": 6325,
      "▁week.": 6326,
      "▁lick": 6327,
      "▁shy.": 6328,
      "▁there!": 6329,
      "▁\n\nMom": 6330,
      "▁body.": 6331,
      "▁Aunt": 6332,
      "▁cane": 6333,
      "▁brings": 6334,
      ".\"\n\nTimmy": 6335,
      "▁gotten": 6336,
      "▁trunk.": 6337,
      ".\n\nSally": 6338,
      "▁orang": 6339,
      "▁raised": 6340,
      "▁nicely.": 6341,
      "▁family,": 6342,
      "▁feelings.": 6343,
      "▁walking.": 6344,
      "▁dead.": 6345,
      ".\n\nMama": 6346,
      "▁cool!": 6347,
      "▁cool!\"": 6348,
      "▁hair,": 6349,
      "▁Sarah's": 6350,
      "▁farmer.": 6351,
      "▁cups": 6352,
      "▁plants.": 6353,
      "▁mailman": 6354,
      "▁winter": 6355,
      "▁round.": 6356,
      "▁calm.": 6357,
      "▁harb": 6358,
      "▁suppl": 6359,
      "▁folded": 6360,
      ".\n\nThat": 6361,
      "▁disappeared.": 6362,
      "▁medal": 6363,
      "▁lamp.": 6364,
      "▁Mary.": 6365,
      "▁sugar,": 6366,
      "▁exclaimed.": 6367,
      "▁cuddled": 6368,
      "▁disappointed,": 6369,
      "▁writes": 6370,
      "▁received": 6371,
      "▁sunset": 6372,
      "▁quarrel": 6373,
      ",aEUR": 6374,
      "Ch": 6375,
      "We": 6376,
      "case": 6377,
      "jo": 6378,
      "ues": 6379,
      "hest": 6380,
      "▁tong": 6381,
      "▁hesit": 6382,
      "ay!": 6383,
      "ared": 6384,
      "▁you?\"\n\nThe": 6385,
      "▁weak.": 6386,
      "elcome": 6387,
      ".\n\n\"Mommy,": 6388,
      "▁\"I'll": 6389,
      "▁scary,": 6390,
      "▁dog!\"": 6391,
      "▁blood": 6392,
      "▁\"Wow!": 6393,
      "▁eating,": 6394,
      "▁offer": 6395,
      "▁cheek": 6396,
      "▁Carl": 6397,
      "▁wobb": 6398,
      "▁Poppy": 6399,
      "▁stove.": 6400,
      "▁dishes": 6401,
      "▁Rachel": 6402,
      "▁Spark": 6403,
      "▁\"Okay": 6404,
      "▁glad.": 6405,
      "▁warmth": 6406,
      "▁floated": 6407,
      "▁pretend.": 6408,
      "▁swinging": 6409,
      "▁wooden": 6410,
      "▁petted": 6411,
      "▁amazing!": 6412,
      "▁laughs.": 6413,
      "▁fields": 6414,
      "▁table,": 6415,
      "▁whistling": 6416,
      "▁snapped": 6417,
      "▁shrimp": 6418,
      "▁burned": 6419,
      "▁\n\nBob": 6420,
      "▁sneezed": 6421,
      "▁battery": 6422,
      "▁studied": 6423,
      "▁triangle": 6424,
      "▁dictionary": 6425,
      "▁bicycle": 6426,
      "▁prepared": 6427,
      "▁Buddy": 6428,
      "▁journal": 6429,
      "Billy": 6430,
      "▁cards": 6431,
      "▁page": 6432,
      "▁pages": 6433,
      "▁gain": 6434,
      "ates.": 6435,
      "▁Smith": 6436,
      "▁LetaEURTMs": 6437,
      "▁lic": 6438,
      "▁too.\n\nThe": 6439,
      "▁leather": 6440,
      "▁alone,": 6441,
      "▁sunr": 6442,
      "▁comf": 6443,
      "▁immediately": 6444,
      "▁says.\n\nTom": 6445,
      "▁says.\n\n\"Yes,": 6446,
      "▁window,": 6447,
      "▁joke.": 6448,
      "▁delay": 6449,
      "▁pulling": 6450,
      ".\n\nJill": 6451,
      "▁behind.": 6452,
      "▁dreams.": 6453,
      "▁perfectly": 6454,
      "▁leave,": 6455,
      "▁blackboard": 6456,
      "s.\"\n\nThe": 6457,
      "▁wheat": 6458,
      "▁\"Give": 6459,
      "▁puzzle.": 6460,
      "laire": 6461,
      "▁shrink": 6462,
      "▁kisses": 6463,
      "▁vegetables.": 6464,
      "▁understood.": 6465,
      "▁marching": 6466,
      "▁destin": 6467,
      "▁curled": 6468,
      "▁Frank": 6469,
      "▁fuel": 6470,
      "▁urge": 6471,
      "▁temp": 6472,
      "led,": 6473,
      "▁set.": 6474,
      "▁washing": 6475,
      "▁none": 6476,
      "▁Here": 6477,
      "▁ear.": 6478,
      "▁said.\n\nTom": 6479,
      "▁ris": 6480,
      "▁moms.": 6481,
      "▁mom?\"": 6482,
      "▁happiest": 6483,
      "▁shot": 6484,
      "▁allow": 6485,
      "▁cage.": 6486,
      "▁sometim": 6487,
      "▁coins.": 6488,
      "▁decision": 6489,
      "▁Fro": 6490,
      "!\"\n\nTim": 6491,
      "▁bus.": 6492,
      "▁chess": 6493,
      "▁remove": 6494,
      "▁shouting": 6495,
      "▁Spot,": 6496,
      "▁zig": 6497,
      "▁stop,": 6498,
      "▁patient.": 6499,
      "▁yummy!": 6500,
      "▁candy,": 6501,
      "▁surprised,": 6502,
      "▁breaks": 6503,
      "▁cupboard.": 6504,
      "▁along,": 6505,
      "umber.": 6506,
      "▁it.\"\n\nLily": 6507,
      "▁distance": 6508,
      "▁\"And": 6509,
      "▁wheel.": 6510,
      "▁diary": 6511,
      "▁patiently": 6512,
      "▁ticket": 6513,
      "▁examined": 6514,
      "▁frowned": 6515,
      "▁ok,": 6516,
      "▁mailbox.": 6517,
      "▁branches.": 6518,
      "▁Teddy.": 6519,
      "▁olive": 6520,
      "▁stomach": 6521,
      "▁panda": 6522,
      "▁cauliflower": 6523,
      "▁ornament": 6524,
      "▁rhinoceros": 6525,
      "▁request": 6526,
      "▁leopard": 6527,
      "▁applau": 6528,
      "ale.": 6529,
      "▁1": 6530,
      "▁Sun": 6531,
      "▁said.\n\n\"I": 6532,
      "▁them.\n\nThe": 6533,
      "robe": 6534,
      "▁cats": 6535,
      "▁how.": 6536,
      "▁skull": 6537,
      "▁this,": 6538,
      "▁end!": 6539,
      "▁home.\n\nWhen": 6540,
      "▁badly.": 6541,
      "▁stickers.": 6542,
      "▁talent": 6543,
      "▁yellow,": 6544,
      "▁softly": 6545,
      "▁bab": 6546,
      "▁Ol": 6547,
      "▁sits": 6548,
      ".\n\n\"This": 6549,
      "▁petals": 6550,
      "▁activ": 6551,
      "▁veil": 6552,
      "▁drink.": 6553,
      "▁prize.": 6554,
      "▁admiring": 6555,
      "▁working.": 6556,
      "▁purse": 6557,
      "▁advice.": 6558,
      "▁themselves.": 6559,
      "▁energy": 6560,
      "mm,": 6561,
      "▁available": 6562,
      "▁soccer": 6563,
      "▁faucet": 6564,
      "Every": 6565,
      "riger": 6566,
      "▁hate": 6567,
      "▁low,": 6568,
      "ison": 6569,
      "ile,": 6570,
      "ater.": 6571,
      "▁saving": 6572,
      "▁equ": 6573,
      "▁station": 6574,
      "▁stage.": 6575,
      "▁she'd": 6576,
      "▁May": 6577,
      "▁James": 6578,
      "▁scur": 6579,
      "▁asked.\n\nThe": 6580,
      "▁chip": 6581,
      "▁pole": 6582,
      "▁prec": 6583,
      "▁comet": 6584,
      "emember": 6585,
      "▁kindness.": 6586,
      "▁draw.": 6587,
      "▁safely.": 6588,
      "▁smelly.": 6589,
      "▁can't.": 6590,
      "▁dressed": 6591,
      "▁shape.": 6592,
      "ipping": 6593,
      "!\"\n\nShe": 6594,
      "!\"\n\nSam": 6595,
      "▁comforted": 6596,
      "▁giggle": 6597,
      "▁salad.": 6598,
      "▁ringing": 6599,
      "▁classroom": 6600,
      "▁garage": 6601,
      "▁pants.": 6602,
      "▁Brownie": 6603,
      "▁refriger": 6604,
      "▁hours,": 6605,
      "▁begged": 6606,
      "▁includ": 6607,
      "▁television": 6608,
      "▁microphone": 6609,
      "▁celery": 6610,
      "▁melon": 6611,
      "▁ashtray": 6612,
      "▁effort": 6613,
      "he.": 6614,
      "▁cow.": 6615,
      "▁mister": 6616,
      "▁panc": 6617,
      "ishing": 6618,
      "isa.": 6619,
      "▁See": 6620,
      "▁said.\n\n\"No,": 6621,
      "▁rag": 6622,
      "▁IaEURTMm": 6623,
      "▁Lou": 6624,
      "▁days.": 6625,
      "▁Mat": 6626,
      "▁known": 6627,
      "▁clay.": 6628,
      "▁chore": 6629,
      "▁peach": 6630,
      "▁office.": 6631,
      "angu": 6632,
      "▁needed.": 6633,
      "▁still.": 6634,
      "▁far.": 6635,
      "▁delight.": 6636,
      "▁shout.": 6637,
      "▁wherever": 6638,
      "▁soft,": 6639,
      "▁swimm": 6640,
      "▁\"See,": 6641,
      "▁snowball": 6642,
      "▁marri": 6643,
      "▁safe.\"": 6644,
      "▁sparkling": 6645,
      "▁cried,": 6646,
      "▁bottle.": 6647,
      "▁scream.": 6648,
      "▁3-year-old": 6649,
      "▁wish.": 6650,
      "▁Emma.": 6651,
      "▁shrugged": 6652,
      "▁paw.": 6653,
      "▁nuts": 6654,
      "▁twisted": 6655,
      "▁difficult.": 6656,
      ".\n\nOnce": 6657,
      "▁squeeze": 6658,
      "▁bricks": 6659,
      "▁insisted": 6660,
      "▁Steve": 6661,
      "▁suffer": 6662,
      "▁surrounded": 6663,
      "▁superhero": 6664,
      "▁anchor": 6665,
      "▁calendar": 6666,
      "▁Mittens.": 6667,
      "Don't": 6668,
      "eed": 6669,
      "hic": 6670,
      "mare": 6671,
      "rin": 6672,
      "w!": 6673,
      "▁sid": 6674,
      "▁ble": 6675,
      "inked": 6676,
      "▁lumber": 6677,
      "ome,": 6678,
      "▁us,\"": 6679,
      "▁yet": 6680,
      "oof.": 6681,
      "ame.": 6682,
      "▁rust": 6683,
      "▁rush": 6684,
      "▁we're": 6685,
      "enty": 6686,
      "▁shade": 6687,
      "▁rele": 6688,
      "▁Tom,\"": 6689,
      "▁helpless": 6690,
      "▁roar.": 6691,
      "▁bird!\"": 6692,
      "▁away.\"": 6693,
      "▁me?": 6694,
      "▁flap": 6695,
      "▁lawn": 6696,
      "▁El": 6697,
      "usie": 6698,
      "akes.": 6699,
      "ions.": 6700,
      "▁better.\"": 6701,
      "▁loud,": 6702,
      "▁replace": 6703,
      "▁Red": 6704,
      ".\n\n\"What's": 6705,
      "▁high,": 6706,
      "▁Jane's": 6707,
      "▁wear.": 6708,
      ".\n\n\"Ow,": 6709,
      "▁vehic": 6710,
      "▁pillow.": 6711,
      "▁eggs.": 6712,
      "▁honest.": 6713,
      "▁meant.": 6714,
      "▁jelly.": 6715,
      "▁smooth.": 6716,
      "▁ordered": 6717,
      "▁tag.": 6718,
      "▁pupil": 6719,
      "▁palm": 6720,
      "▁bracele": 6721,
      "▁friendship.": 6722,
      "▁experience": 6723,
      "▁thirsty": 6724,
      ".\n\n\"Help,": 6725,
      "▁flour,": 6726,
      "▁eraser": 6727,
      "▁chirping": 6728,
      "▁laundry": 6729,
      "▁vacation": 6730,
      "▁greedy": 6731,
      "▁radio": 6732,
      "-b": 6733,
      "eaked": 6734,
      "ious,": 6735,
      "s.\n\nThe": 6736,
      "us.": 6737,
      "▁langu": 6738,
      "isf": 6739,
      ".\n\nGrandma": 6740,
      "▁her!": 6741,
      "adly,": 6742,
      "child": 6743,
      "▁were.": 6744,
      "▁seal": 6745,
      "ight,": 6746,
      "ases": 6747,
      "ask.": 6748,
      "▁meowed": 6749,
      "ara,": 6750,
      ".\n\nSoon": 6751,
      "uce.": 6752,
      "▁jump.": 6753,
      "▁badly": 6754,
      "!\n\nLily": 6755,
      "▁eye.": 6756,
      "▁amazement": 6757,
      "▁nightmare": 6758,
      "▁leaves,": 6759,
      "▁bushes": 6760,
      "▁monkey.": 6761,
      "▁\"Help": 6762,
      "▁satisf": 6763,
      "▁games,": 6764,
      "▁bowed": 6765,
      "▁hungry,": 6766,
      "▁squirrels": 6767,
      "▁words,": 6768,
      "▁attached": 6769,
      "▁split": 6770,
      "▁surprise!": 6771,
      "▁cloth.": 6772,
      "▁foot.": 6773,
      "▁pizza.": 6774,
      "▁sweater": 6775,
      "▁popcorn.": 6776,
      "▁cabinet": 6777,
      "▁uncomfortable.": 6778,
      "▁destroyed": 6779,
      "▁sandbox.": 6780,
      "▁microscope": 6781,
      ".\n\n\"Please,": 6782,
      "▁provide": 6783,
      "▁menu": 6784,
      "▁either.": 6785,
      "▁Molly.": 6786,
      "▁firefight": 6787,
      "▁weapon": 6788,
      "▁gasped.": 6789,
      "▁elevator": 6790,
      "▁veterinarian": 6791,
      "▁therm": 6792,
      "▁fut": 6793,
      "▁fest": 6794,
      "▁pipe": 6795,
      "▁herb": 6796,
      "▁rot": 6797,
      "▁Look,": 6798,
      "▁there?\"": 6799,
      "▁class.": 6800,
      "▁tremb": 6801,
      "▁away!\"": 6802,
      "▁me?\"\n\n": 6803,
      "▁new,": 6804,
      "▁mudd": 6805,
      "▁blinked": 6806,
      "bbie": 6807,
      "▁orange.": 6808,
      "▁grey": 6809,
      "▁raz": 6810,
      "▁fine.": 6811,
      "▁bad,": 6812,
      "▁drain": 6813,
      "▁ever!\"": 6814,
      "▁yelled,": 6815,
      "▁pain.": 6816,
      "▁three-year-old": 6817,
      "▁\"We're": 6818,
      "▁fixing": 6819,
      "▁fixed.": 6820,
      "▁worked!": 6821,
      "▁There,": 6822,
      "▁Kate": 6823,
      "▁fruits.": 6824,
      "▁pastel": 6825,
      "▁grandchild": 6826,
      "▁monkeys": 6827,
      "▁test.": 6828,
      "▁towel.": 6829,
      "▁horn.": 6830,
      "▁pencil.": 6831,
      "▁stairs.": 6832,
      "▁\"No!": 6833,
      "▁truth.": 6834,
      "▁chalk.": 6835,
      "cycle": 6836,
      "▁fetch": 6837,
      "▁travell": 6838,
      "▁True": 6839,
      "▁wizard": 6840,
      "men": 6841,
      "▁side,": 6842,
      "▁wid": 6843,
      "ited": 6844,
      "▁obe": 6845,
      "▁gust": 6846,
      "ley": 6847,
      "▁Lisa.": 6848,
      "▁you.\"\n\nThey": 6849,
      "▁exact": 6850,
      "▁knife.": 6851,
      "▁asked.\n\nLily": 6852,
      "▁vet": 6853,
      "▁We're": 6854,
      "▁pretti": 6855,
      "▁evening,": 6856,
      "▁glowed": 6857,
      "▁climbs": 6858,
      "▁thrilled": 6859,
      "▁truck,": 6860,
      "▁Not": 6861,
      "▁breaking": 6862,
      "▁oursel": 6863,
      "▁bites": 6864,
      "▁restore": 6865,
      "▁cooler": 6866,
      "▁tasty.": 6867,
      "▁\nA": 6868,
      "▁frogs": 6869,
      "▁crashed": 6870,
      "▁piano": 6871,
      "▁slowly.": 6872,
      "▁sparkle": 6873,
      ".\n\n\"Hello": 6874,
      "▁sailing": 6875,
      ".\n\nBenny": 6876,
      "▁mint": 6877,
      "▁planted": 6878,
      "▁sister,": 6879,
      "▁carrot.": 6880,
      "?\"\n\n\"S": 6881,
      "▁market.": 6882,
      "▁bringing": 6883,
      "▁desk": 6884,
      "▁deser": 6885,
      "▁\"Go": 6886,
      "!\"\n\nSo,": 6887,
      "▁peaceful.": 6888,
      "▁came,": 6889,
      "▁paws": 6890,
      "▁lunch,": 6891,
      "▁price": 6892,
      "▁sugar.": 6893,
      ".\n\n\"Go": 6894,
      "▁prayed": 6895,
      "▁bouncing": 6896,
      "▁sneeze": 6897,
      "▁circle.": 6898,
      "▁lucky.": 6899,
      "▁OK.": 6900,
      "▁mirror.": 6901,
      "▁miserable.": 6902,
      "▁sofa": 6903,
      "▁cherry": 6904,
      "▁Sharing": 6905,
      "▁pretty,": 6906,
      "▁praised": 6907,
      "?\n\n": 6908,
      "ude": 6909,
      "zag": 6910,
      "▁by,": 6911,
      "▁file": 6912,
      "▁chat": 6913,
      "▁lect": 6914,
      "▁dent": 6915,
      "▁gained": 6916,
      "enc": 6917,
      "▁Sue,": 6918,
      "▁rake": 6919,
      "▁Lu": 6920,
      "▁there's": 6921,
      "▁back!": 6922,
      "um,": 6923,
      ".\"\n\nLila": 6924,
      "ucky.": 6925,
      "▁Fo": 6926,
      "▁trade": 6927,
      "▁kind,": 6928,
      "▁home.\n\nThe": 6929,
      "▁hurting": 6930,
      "▁people,": 6931,
      "!\n\nM": 6932,
      "▁Nina": 6933,
      "▁owner,": 6934,
      "▁bravely": 6935,
      "▁\"Did": 6936,
      "▁child.": 6937,
      "▁Sarah,": 6938,
      "appy.": 6939,
      "▁Lila's": 6940,
      "▁\n\nJoe": 6941,
      "▁paints": 6942,
      "▁Floppy": 6943,
      "▁\n\nMolly": 6944,
      "▁smoke.": 6945,
      "▁stones.": 6946,
      "▁argu": 6947,
      "▁memory": 6948,
      "▁settle": 6949,
      "▁clapped.": 6950,
      "▁anxious.": 6951,
      "▁axe": 6952,
      "▁holiday": 6953,
      "▁newspaper": 6954,
      "▁doggy": 6955,
      "▁Rabbit": 6956,
      "▁grinned": 6957,
      "▁fascinated": 6958,
      "▁skeleton": 6959,
      "▁festiv": 6960,
      "-and": 6961,
      "me": 6962,
      "ano.": 6963,
      "▁\"w": 6964,
      "amber": 6965,
      "▁By": 6966,
      "\"\n\nAnna": 6967,
      "▁weren't": 6968,
      "▁him.\n\nOne": 6969,
      "▁happy.\n\nThey": 6970,
      "▁Ben!": 6971,
      "▁scr": 6972,
      "▁asked.\n\n\"No,": 6973,
      "▁greet": 6974,
      "▁bears": 6975,
      "▁glitt": 6976,
      "▁says.\n\nLily": 6977,
      "▁raise": 6978,
      "▁waits": 6979,
      "▁remained": 6980,
      "▁cook.": 6981,
      "▁accom": 6982,
      "▁boat,": 6983,
      "▁Lila,": 6984,
      "▁Kay": 6985,
      "▁street,": 6986,
      "▁emerg": 6987,
      "▁treasures": 6988,
      "▁balloons.": 6989,
      "▁person.": 6990,
      "▁castle,": 6991,
      "▁Josh": 6992,
      "▁villag": 6993,
      "▁However,": 6994,
      "▁solved": 6995,
      "▁stream.": 6996,
      "▁\n\nTommy": 6997,
      "▁dough.": 6998,
      "▁chirped": 6999,
      "▁forth.": 7000,
      "▁thirsty.": 7001,
      "▁aEURoeThataEURTMs": 7002,
      "▁waffle": 7003,
      "▁volcano": 7004,
      "▁observe": 7005,
      "▁practicing": 7006,
      "▁hurricane": 7007,
      "▁rhythm": 7008,
      "▁equip": 7009,
      "-and-": 7010,
      "▁accompl": 7011,
      "Oh": 7012,
      "sy.": 7013,
      "ube": 7014,
      "▁tube": 7015,
      "▁waves.": 7016,
      "▁lung": 7017,
      "ory.": 7018,
      "▁it?\"\n\n": 7019,
      "▁\"t": 7020,
      "▁\"Ben,": 7021,
      "▁rise": 7022,
      "▁you?": 7023,
      "▁do?": 7024,
      "▁white.": 7025,
      "▁them.\n\nThey": 7026,
      "▁Jam": 7027,
      "▁knelt": 7028,
      "▁asked.\n\n\"Sure,": 7029,
      ".\"\n\nMia": 7030,
      "▁flood": 7031,
      "▁chamber": 7032,
      "isten": 7033,
      "▁about.": 7034,
      "▁eat,": 7035,
      "bye,": 7036,
      "▁says.\n\nAnna": 7037,
      "▁brain": 7038,
      "▁underne": 7039,
      "!\n\nJ": 7040,
      "▁home.\"": 7041,
      "▁conf": 7042,
      "▁head,": 7043,
      "▁traff": 7044,
      "▁painter": 7045,
      "▁contain": 7046,
      "▁rules": 7047,
      "▁counter.": 7048,
      "▁Tommy,": 7049,
      "▁Grace": 7050,
      "▁missing.": 7051,
      "hose": 7052,
      "▁vend": 7053,
      "▁gone!": 7054,
      "▁fingers.": 7055,
      "▁clever.": 7056,
      "▁Tweetie": 7057,
      "▁last,": 7058,
      "▁frowned.": 7059,
      "▁lemonade": 7060,
      "▁hamm": 7061,
      "▁refre": 7062,
      "▁recognized": 7063,
      "▁recognize": 7064,
      "▁neighbourhood": 7065,
      "▁automobile": 7066,
      "▁ceiling": 7067,
      "▁organized.": 7068,
      "▁telephone": 7069,
      "▁proper": 7070,
      "▁luggage": 7071,
      "▁zigzag": 7072,
      "Maybe": 7073,
      "Suddenly,": 7074,
      "ea": 7075,
      "eep": 7076,
      "eally": 7077,
      "▁bake.": 7078,
      "▁pen.": 7079,
      "▁nicer": 7080,
      "▁These": 7081,
      "▁it.\n\nLily": 7082,
      "▁youth": 7083,
      "▁space.": 7084,
      "umble": 7085,
      "▁cliff": 7086,
      "▁alive.": 7087,
      "ell,": 7088,
      "▁again!\"": 7089,
      "▁Mom's": 7090,
      "▁look!": 7091,
      "▁happy.\"": 7092,
      "▁pear": 7093,
      "▁skin.": 7094,
      "▁kindly": 7095,
      "▁glue.": 7096,
      "▁says:": 7097,
      "▁beautiful!": 7098,
      "▁jumped,": 7099,
      "▁three,": 7100,
      "▁Pip": 7101,
      "▁colorful.": 7102,
      "▁warm,": 7103,
      "▁stop!\"": 7104,
      "▁candles": 7105,
      "▁taller": 7106,
      "▁surprises": 7107,
      "▁married": 7108,
      ".\n\n\"Hi": 7109,
      "▁deeper": 7110,
      "▁hide-and-": 7111,
      "▁apples,": 7112,
      ".\n\nTim's": 7113,
      "▁desk.": 7114,
      "▁bark.": 7115,
      "▁collecting": 7116,
      "▁sliding": 7117,
      "▁chocolate.": 7118,
      "▁yard,": 7119,
      "▁frightened.": 7120,
      "▁independent.": 7121,
      "▁dessert.": 7122,
      "▁berries.": 7123,
      "▁lid.": 7124,
      "▁haircut.": 7125,
      "▁sizes.": 7126,
      "▁label": 7127,
      "▁ruined.": 7128,
      "▁Snowy": 7129,
      "▁upstairs": 7130,
      "▁simple": 7131,
      "▁released": 7132,
      "▁exactly": 7133,
      "▁hide-and-se": 7134,
      "-loo": 7135,
      "ives": 7136,
      "ving.": 7137,
      "nder.": 7138,
      "▁hoo": 7139,
      "ern": 7140,
      "▁pet.": 7141,
      "ometer": 7142,
      "▁ga": 7143,
      "ence": 7144,
      "▁sauce.": 7145,
      "▁east": 7146,
      "▁beat": 7147,
      "▁roof.": 7148,
      "▁Like": 7149,
      "▁you\"": 7150,
      "allen": 7151,
      "▁spit": 7152,
      "▁Tom!\"": 7153,
      "▁fun.\n\nThe": 7154,
      "▁trem": 7155,
      "▁challen": 7156,
      "▁liked.": 7157,
      "▁friends.\n\nThe": 7158,
      "▁yours": 7159,
      "▁poking": 7160,
      "▁Lily.\"": 7161,
      "▁troph": 7162,
      "▁ball!\"": 7163,
      "▁this!\"": 7164,
      "▁Jackie": 7165,
      "▁soon.\"": 7166,
      "▁rocks,": 7167,
      "▁flying.": 7168,
      "▁looking.": 7169,
      "▁wonders": 7170,
      "▁rabbits": 7171,
      "▁squash": 7172,
      "▁creek": 7173,
      ".\n\nMandy": 7174,
      "▁worked.": 7175,
      "▁name?\"": 7176,
      "▁comple": 7177,
      "▁blankets": 7178,
      "▁\n\nMama": 7179,
      "▁legs.": 7180,
      "▁driver.": 7181,
      "!\"\n\n\"No,": 7182,
      "▁Emily.": 7183,
      "▁mystery": 7184,
      "▁decorated": 7185,
      "▁jewelry": 7186,
      "▁wisdom": 7187,
      "▁soared": 7188,
      "▁medicine.": 7189,
      "▁shocked.": 7190,
      "▁writing": 7191,
      "▁tunnel.": 7192,
      "▁costume": 7193,
      "▁butterflies.": 7194,
      "▁pedal": 7195,
      "▁measured": 7196,
      "▁investigate": 7197,
      "▁photo": 7198,
      "▁laughter": 7199,
      "▁Betsy": 7200,
      "▁Instead,": 7201,
      "▁villagers": 7202,
      "-looking": 7203,
      "I'm": 7204,
      "ey.": 7205,
      "ler": 7206,
      "▁bak": 7207,
      "▁digg": 7208,
      "▁heat": 7209,
      "▁pit": 7210,
      "▁gym": 7211,
      "▁Hop": 7212,
      "▁row": 7213,
      "▁weight": 7214,
      "▁Bo": 7215,
      "my,": 7216,
      "\"\n\nBut": 7217,
      "\"\n\nTim": 7218,
      "\"\n\nHer": 7219,
      "\"\n\nShe": 7220,
      "▁Tim!": 7221,
      ".\"\n\nL": 7222,
      ".\"\n\nJohn": 7223,
      "ist.": 7224,
      "▁balls.": 7225,
      "▁stay.": 7226,
      "▁hurt,": 7227,
      "▁John's": 7228,
      "▁pretty!": 7229,
      "▁explore,": 7230,
      "▁before!": 7231,
      "▁drawing.": 7232,
      "▁drinking": 7233,
      "▁crept": 7234,
      "▁green,": 7235,
      "▁cold,": 7236,
      "▁King": 7237,
      "▁visiting": 7238,
      "▁Tommy's": 7239,
      ".\n\nLater,": 7240,
      "▁chair,": 7241,
      "▁brown.": 7242,
      "▁field,": 7243,
      "▁\n\nMum": 7244,
      "▁wagon.": 7245,
      "▁bene": 7246,
      "▁it.\"\n\nThe": 7247,
      "▁whistled": 7248,
      "▁parked": 7249,
      "▁respectful.": 7250,
      "▁eventually,": 7251,
      "▁bananas": 7252,
      "▁presents": 7253,
      "▁chicken.": 7254,
      "▁bubbles.": 7255,
      "▁us.\"": 7256,
      "▁adventurous.": 7257,
      "▁drum.": 7258,
      "▁examine": 7259,
      "▁asking.": 7260,
      "▁stupid.": 7261,
      "▁opera": 7262,
      "time.": 7263,
      "▁blueberries": 7264,
      ".\n\n\"Stop,": 7265,
      "▁camera.": 7266,
      "▁tape.": 7267,
      "▁porch": 7268,
      "▁kitten.": 7269,
      "▁danger.": 7270,
      "▁birdcage": 7271,
      "▁frosting": 7272,
      "▁obey": 7273,
      "\nOne": 7274,
      "kin.": 7275,
      "▁wide.": 7276,
      "▁wine": 7277,
      "▁mes": 7278,
      "ato.": 7279,
      "ator.": 7280,
      "▁it.\n\nShe": 7281,
      "▁ink.": 7282,
      "▁sore": 7283,
      "▁\n\nR": 7284,
      "▁sew": 7285,
      "▁Joy": 7286,
      "ouse,": 7287,
      "antly": 7288,
      "▁rooms": 7289,
      "▁boxes.": 7290,
      "▁glass.": 7291,
      "▁brand": 7292,
      "▁real.": 7293,
      "▁jokes": 7294,
      "▁perched": 7295,
      "▁write.": 7296,
      "▁Johnson": 7297,
      "▁trash.": 7298,
      "▁first!\"": 7299,
      "▁hated": 7300,
      "▁drives": 7301,
      "uffy,": 7302,
      "▁stars,": 7303,
      "▁\nM": 7304,
      "▁continue": 7305,
      "▁plann": 7306,
      "▁hole,": 7307,
      "▁mixer": 7308,
      "▁easier": 7309,
      "▁\"Now,": 7310,
      "▁comfortable.": 7311,
      "▁minute": 7312,
      "▁aEURoeIaEURTMm": 7313,
      "▁\"Here": 7314,
      "▁banana.": 7315,
      "▁reminder": 7316,
      "▁invitation": 7317,
      "▁gun.": 7318,
      "▁moving.": 7319,
      "▁classroom.": 7320,
      ".\n\nInside": 7321,
      "▁gum.": 7322,
      "▁view.": 7323,
      "▁blueberry": 7324,
      "▁\"Stop!": 7325,
      "▁troubled.": 7326,
      "▁yawned": 7327,
      "▁exercise": 7328,
      "▁introduc": 7329,
      "▁unhappy.": 7330,
      "▁buzzing": 7331,
      "▁landscap": 7332,
      "▁history": 7333,
      "▁sometimes.": 7334,
      "▁prettiest": 7335,
      "xy": 7336,
      "▁bone.": 7337,
      "ress.": 7338,
      "eri": 7339,
      "▁pon": 7340,
      "anny": 7341,
      "▁it.\n\nHe": 7342,
      ".\n\nC": 7343,
      "▁yet.": 7344,
      "▁onwards,": 7345,
      "aded": 7346,
      "▁plenty": 7347,
      "▁times.": 7348,
      "▁outd": 7349,
      "▁caut": 7350,
      "▁fun.\n\nThey": 7351,
      "▁score": 7352,
      "▁brushed": 7353,
      "▁becom": 7354,
      "!\"\n\nMommy": 7355,
      "▁slice": 7356,
      "▁peered": 7357,
      "▁eats": 7358,
      "▁watches": 7359,
      "▁fastest": 7360,
      "▁harder.": 7361,
      "▁waited,": 7362,
      "▁aEURoeNo,": 7363,
      "▁shoulder": 7364,
      "▁tease": 7365,
      "▁rocked": 7366,
      "▁Dad,": 7367,
      "▁perfu": 7368,
      "▁sticky": 7369,
      "▁okay,\"": 7370,
      "▁remembers": 7371,
      "▁here!\"": 7372,
      "▁froz": 7373,
      ".\n\nMummy": 7374,
      "▁drive.": 7375,
      "▁yummy!\"": 7376,
      "▁materi": 7377,
      "▁air,": 7378,
      "▁time.\"": 7379,
      "▁setting": 7380,
      "▁wrong?\"": 7381,
      "▁growled": 7382,
      ".\n\n\"Me": 7383,
      "▁result": 7384,
      "▁cart.": 7385,
      "▁aEURoeWe": 7386,
      "▁nuts.": 7387,
      "▁solut": 7388,
      "▁circles.": 7389,
      "▁team.": 7390,
      "▁shooting": 7391,
      "▁guessed": 7392,
      "▁scratched": 7393,
      "▁ahead.": 7394,
      "▁unlocked": 7395,
      "▁oyst": 7396,
      "▁sofa.": 7397,
      "▁size.": 7398,
      "▁itself.": 7399,
      "▁paddled": 7400,
      "▁glowing": 7401,
      "▁\n\nDaisy": 7402,
      "▁struggling": 7403,
      "▁ceiling.": 7404,
      "▁Jessie": 7405,
      "▁increase": 7406,
      "▁chimney": 7407,
      "▁reverse": 7408,
      "▁university": 7409,
      "▁direction": 7410,
      "▁permission": 7411,
      "▁\"Tim,": 7412,
      "▁bleed": 7413,
      "bble.": 7414,
      "x-": 7415,
      "▁ice.": 7416,
      "▁son.": 7417,
      "▁toe": 7418,
      "▁boo": 7419,
      "ities": 7420,
      "ored": 7421,
      "▁inch": 7422,
      "▁Bell": 7423,
      "▁release": 7424,
      "▁\n\nH": 7425,
      "▁spi": 7426,
      "▁can,": 7427,
      "▁worm.": 7428,
      "▁Mom!\"": 7429,
      "▁Sammy.": 7430,
      "!\"\n\nJack": 7431,
      "▁cat's": 7432,
      "▁slow,": 7433,
      "▁peel": 7434,
      "▁peace.": 7435,
      "ia,": 7436,
      "▁officer": 7437,
      "▁best,": 7438,
      "▁chef": 7439,
      "▁aEURoeThank": 7440,
      "▁removed": 7441,
      "▁doll's": 7442,
      "▁bit.": 7443,
      "▁zer": 7444,
      "▁below.": 7445,
      "▁safari": 7446,
      "▁dresses": 7447,
      "▁papers.": 7448,
      "▁crayon.": 7449,
      "▁same.": 7450,
      "ventually": 7451,
      "▁acted": 7452,
      "▁well,": 7453,
      "▁cheese,": 7454,
      "▁journey,": 7455,
      "▁woman.": 7456,
      "nnie": 7457,
      ".\n\n\"Here,": 7458,
      "▁Someone": 7459,
      ".\n\n\"Give": 7460,
      "▁vanished": 7461,
      "▁cuddle": 7462,
      "▁patterns": 7463,
      "ext,": 7464,
      "▁\n\nTo": 7465,
      "▁camping": 7466,
      "▁nature.": 7467,
      "▁club.": 7468,
      ".\n\n\"Yuck": 7469,
      "▁sweetheart.": 7470,
      "▁urged": 7471,
      "▁boots": 7472,
      "▁Katie": 7473,
      "▁earthqu": 7474,
      "▁billboard": 7475,
      "▁precious": 7476,
      "▁bracelet.": 7477,
      "Un": 7478,
      "ber.": 7479,
      "ie,\"": 7480,
      "rr": 7481,
      "sing": 7482,
      "▁V": 7483,
      "▁x-": 7484,
      "▁bare": 7485,
      "ree": 7486,
      "▁fash": 7487,
      "ite,": 7488,
      "▁pout": 7489,
      "ayb": 7490,
      "ppy.": 7491,
      "▁Liz": 7492,
      "▁his.": 7493,
      "▁up!": 7494,
      "une": 7495,
      "\"\n\nJ": 7496,
      "▁canaEURTMt": 7497,
      "▁Tom!": 7498,
      "aser.": 7499,
      "▁start.": 7500,
      "▁Timmy!": 7501,
      "▁me?\"\n\nThe": 7502,
      "▁caring": 7503,
      ".\"\n\nMax": 7504,
      "▁blouse": 7505,
      "acob": 7506,
      "▁pearl": 7507,
      "▁Claire": 7508,
      "▁famil": 7509,
      "▁aEURoeN": 7510,
      "▁aEURoeS": 7511,
      "!\n\nShe": 7512,
      "▁clean,": 7513,
      "▁rocket.": 7514,
      "▁\"Ok,": 7515,
      "day.": 7516,
      "▁trapped": 7517,
      "▁trap.": 7518,
      "▁steel": 7519,
      "▁agree": 7520,
      "▁another.": 7521,
      "▁catching": 7522,
      "▁\"Sure": 7523,
      "▁sleep,": 7524,
      "▁wallet.": 7525,
      "▁lions,": 7526,
      "▁Daisy's": 7527,
      "▁cloud.": 7528,
      "▁paused": 7529,
      "▁river,": 7530,
      "ubble": 7531,
      "▁purple.": 7532,
      "▁upset,": 7533,
      "▁buckle": 7534,
      "▁birthday,": 7535,
      "eady,": 7536,
      "▁shells.": 7537,
      "▁giggled.": 7538,
      "▁neighbor's": 7539,
      "▁\"Hey": 7540,
      "▁pinched": 7541,
      "▁course!": 7542,
      "▁umbrella.": 7543,
      "▁drawings.": 7544,
      "▁half.": 7545,
      "▁running,": 7546,
      "▁hours.": 7547,
      "▁grapes": 7548,
      "▁introduce": 7549,
      "▁reveal": 7550,
      "▁factory": 7551,
      "▁flavor": 7552,
      "▁sidewalk.": 7553,
      "▁reef": 7554,
      "▁comfy": 7555,
      "▁outdoor": 7556,
      "eff": 7557,
      "▁sway": 7558,
      "▁theater": 7559,
      "▁fed": 7560,
      "▁ok.": 7561,
      "ary,": 7562,
      "▁it.\n\nThey": 7563,
      "▁Hoot": 7564,
      "▁loves.": 7565,
      ".\n\n\"Anna,": 7566,
      "▁back!\"": 7567,
      "▁saying,": 7568,
      "▁bird!": 7569,
      "▁boys.": 7570,
      "▁\"Is": 7571,
      "▁car!\"": 7572,
      "▁time!": 7573,
      "▁decides": 7574,
      "▁thought.": 7575,
      "bby.": 7576,
      "?\"\n\nTim": 7577,
      ".\n\nAlice": 7578,
      "▁rail.": 7579,
      "▁tree!": 7580,
      "▁storm.": 7581,
      "▁houses,": 7582,
      "▁Po": 7583,
      "▁realize": 7584,
      "▁close,": 7585,
      "▁closely": 7586,
      "▁ways.": 7587,
      "▁rain,": 7588,
      "▁shouts.": 7589,
      "▁duck,": 7590,
      "▁draws": 7591,
      "▁creation": 7592,
      "▁usually": 7593,
      "▁baked": 7594,
      "▁prince.": 7595,
      "▁world,": 7596,
      "apping": 7597,
      "▁wood.": 7598,
      "▁swims": 7599,
      "▁crash": 7600,
      "▁\"She": 7601,
      "▁\"Max,": 7602,
      "▁sparkles": 7603,
      "▁dangerous,": 7604,
      "▁guy": 7605,
      "▁\n\nMia": 7606,
      "▁asks.\n\n\"Yes,": 7607,
      "▁Grandma's": 7608,
      "▁mail.": 7609,
      "▁quietly": 7610,
      "▁fit.": 7611,
      "▁worried,": 7612,
      ".\n\nBefore": 7613,
      "▁kicking": 7614,
      "▁numbers.": 7615,
      "▁spider.": 7616,
      "▁chewing": 7617,
      "▁panic": 7618,
      "▁burning": 7619,
      "▁figured": 7620,
      "▁melted": 7621,
      "▁permit": 7622,
      "▁prune": 7623,
      "▁skills": 7624,
      "!\n\nSuddenly,": 7625,
      "▁grown-ups": 7626,
      "▁grandpa.": 7627,
      "▁Help!\"": 7628,
      "▁underneath": 7629,
      "▁barely": 7630,
      "!'": 7631,
      "ced": 7632,
      "nect": 7633,
      "oed": 7634,
      "squ": 7635,
      "▁dais": 7636,
      "▁gle": 7637,
      "▁Sant": 7638,
      "lla": 7639,
      "▁yucky": 7640,
      "▁said.\n\n\"OK,": 7641,
      "▁soaked": 7642,
      "ents": 7643,
      "▁help.\n\nThe": 7644,
      "▁scoop": 7645,
      "▁whatever": 7646,
      "▁meat.": 7647,
      "!\"\n\nJohn": 7648,
      "▁\"Would": 7649,
      "▁\"Will": 7650,
      "▁catches": 7651,
      "▁mommy!": 7652,
      "▁quiz": 7653,
      "▁faster,": 7654,
      "▁connect": 7655,
      "▁broom": 7656,
      "▁ward": 7657,
      "▁owned": 7658,
      "▁great,": 7659,
      "▁heads": 7660,
      "▁crumb": 7661,
      "▁butter.": 7662,
      "▁here,\"": 7663,
      "▁\n\nAmy": 7664,
      "▁sky!": 7665,
      "▁parents,": 7666,
      "▁us!\"": 7667,
      "▁drift": 7668,
      "▁bath,": 7669,
      "▁\n\n\"It's": 7670,
      ".\"\n\nSo,": 7671,
      "▁painting.": 7672,
      "▁choice": 7673,
      "▁highest": 7674,
      "▁project": 7675,
      "▁it.\"\n\n\"": 7676,
      "▁race,": 7677,
      "▁searched,": 7678,
      "▁eagle": 7679,
      "▁coats": 7680,
      "▁balance.": 7681,
      "▁ship.": 7682,
      "▁screen.": 7683,
      "▁sword.": 7684,
      "▁lollipop.": 7685,
      "▁clock.": 7686,
      "▁Freddy": 7687,
      "▁sunset.": 7688,
      "▁experien": 7689,
      "▁mentioned": 7690,
      "▁beneath": 7691,
      "een.": 7692,
      "low": 7693,
      "▁six": 7694,
      "▁bank": 7695,
      "▁lily": 7696,
      "▁dam": 7697,
      "▁daisy": 7698,
      "▁dipped": 7699,
      "erry.": 7700,
      "▁wasnaEURTMt": 7701,
      "ened": 7702,
      "▁number.": 7703,
      "▁it?": 7704,
      "▁it.\n\nSuddenly,": 7705,
      "▁ripped": 7706,
      "▁stool": 7707,
      "▁station.": 7708,
      "▁plays": 7709,
      "▁wanting": 7710,
      "▁shade.": 7711,
      "▁do!": 7712,
      "▁little.": 7713,
      "▁ann": 7714,
      "▁boom": 7715,
      "▁out!": 7716,
      "▁them.\"": 7717,
      "▁all,": 7718,
      "▁back.\n\nThe": 7719,
      "▁say.\n\nThey": 7720,
      "▁leap": 7721,
      "▁leash.": 7722,
      "▁fear.": 7723,
      "▁robb": 7724,
      "ashed": 7725,
      "▁good!\"": 7726,
      "▁found!\"": 7727,
      "▁chases": 7728,
      "▁downstair": 7729,
      "antha": 7730,
      "▁\"Wait": 7731,
      "▁watered": 7732,
      "▁eating.": 7733,
      "▁focus": 7734,
      "▁longer.": 7735,
      "andy.": 7736,
      "▁sneaked": 7737,
      "▁bear!": 7738,
      "▁bears.": 7739,
      "▁says.\n\n\"I": 7740,
      "▁nice,\"": 7741,
      "!\n\nThey": 7742,
      "▁listened.": 7743,
      "▁Penny": 7744,
      "▁now,\"": 7745,
      "▁unite": 7746,
      "▁Daddy.": 7747,
      "▁maze": 7748,
      "▁wondering": 7749,
      "▁\n\nSuddenly": 7750,
      "▁cookies,": 7751,
      ".\n\n\"Let": 7752,
      "▁Doggy": 7753,
      "▁use.": 7754,
      ".\n\nMary": 7755,
      "▁tastes": 7756,
      "▁dream,": 7757,
      "▁understanding": 7758,
      "▁counter": 7759,
      "▁hotel.": 7760,
      "▁shoes,": 7761,
      "▁sparkly.": 7762,
      ".\n\n\"Sam,": 7763,
      "▁\"These": 7764,
      "▁nothing.": 7765,
      "▁bike,": 7766,
      "▁\"Yay!": 7767,
      "▁eggs,": 7768,
      "▁zooming": 7769,
      "▁puzzles": 7770,
      "▁breath.": 7771,
      "▁locked.": 7772,
      "▁question.": 7773,
      "▁twirling": 7774,
      "▁obedient.": 7775,
      "▁envelope.": 7776,
      "▁costume.": 7777,
      "▁computer.": 7778,
      ".\n\n\"Help!": 7779,
      "▁slippery": 7780,
      "▁paddle": 7781,
      "▁dear.": 7782,
      "▁yarn.": 7783,
      "▁easily.": 7784,
      "▁airplane": 7785,
      "▁valley": 7786,
      "▁thermometer": 7787,
      "Me": 7788,
      "coon": 7789,
      "oss": 7790,
      "oco": 7791,
      "zie": 7792,
      "▁tide": 7793,
      "▁to,": 7794,
      "▁bon": 7795,
      "itely": 7796,
      "▁lower": 7797,
      "ers,": 7798,
      "▁gaz": 7799,
      "▁nav": 7800,
      "ete": 7801,
      "▁earn": 7802,
      "▁plates": 7803,
      "\"\n\nSam": 7804,
      "▁\n\nBen": 7805,
      "▁ItaEURTMs": 7806,
      "▁are.": 7807,
      "▁girls": 7808,
      "▁together!": 7809,
      "▁together.\n\nThe": 7810,
      ".\"\n\nJack": 7811,
      "rol": 7812,
      "▁For": 7813,
      "!\"\n\nMax": 7814,
      "▁sorted": 7815,
      "▁anytime": 7816,
      "▁slapped": 7817,
      "▁handle.": 7818,
      "▁overjoy": 7819,
      "▁bear's": 7820,
      "▁says.\n\nThe": 7821,
      "▁says.\n\nHe": 7822,
      "▁says.\n\n\"No,": 7823,
      "▁three.": 7824,
      "▁listens": 7825,
      "xture": 7826,
      "▁replac": 7827,
      "▁raining.": 7828,
      "▁\n\nSally": 7829,
      "▁tractor": 7830,
      "▁printer": 7831,
      "▁bag,": 7832,
      "▁tall.": 7833,
      "▁music,": 7834,
      "▁piece.": 7835,
      "▁Benny's": 7836,
      "▁higher,": 7837,
      "▁marks": 7838,
      "▁map.": 7839,
      "▁network": 7840,
      "▁fragile.": 7841,
      "▁operation": 7842,
      "▁rug.": 7843,
      ".\n\n\"Be": 7844,
      "▁loaded": 7845,
      "▁lime": 7846,
      "▁Quack": 7847,
      "▁Abigail": 7848,
      "▁breeze": 7849,
      "▁crunchy": 7850,
      "OK,\"": 7851,
      "▁items": 7852,
      "▁license": 7853,
      "▁completed": 7854,
      "▁digging": 7855,
      "Of": 7856,
      "pin": 7857,
      "row,": 7858,
      "shing": 7859,
      "▁fly,": 7860,
      "▁lined": 7861,
      "▁pan.": 7862,
      "▁wasted": 7863,
      "▁ow!\"": 7864,
      "illy,": 7865,
      "▁Sure": 7866,
      "▁said.\n\n\"But": 7867,
      "▁\"Mom": 7868,
      "▁you\".": 7869,
      "▁played.": 7870,
      "▁Bubble": 7871,
      "▁Mira": 7872,
      "▁Ad": 7873,
      "▁them!": 7874,
      "▁spicy.": 7875,
      "▁thing,": 7876,
      "▁together,\"": 7877,
      "▁hug,": 7878,
      "▁friends!": 7879,
      "▁abo": 7880,
      "▁grant": 7881,
      "▁excitedly.": 7882,
      "▁struck": 7883,
      "▁cheek.": 7884,
      "▁evening": 7885,
      "▁Car": 7886,
      "▁dollar": 7887,
      "▁great!": 7888,
      "▁Bob's": 7889,
      "▁sure.": 7890,
      "▁pulled,": 7891,
      "▁Sue's": 7892,
      "▁carefully,": 7893,
      "▁matches": 7894,
      "▁tall,": 7895,
      "avi": 7896,
      "▁bikes.": 7897,
      "▁lions": 7898,
      "▁moments": 7899,
      "▁wet,": 7900,
      "▁lesson:": 7901,
      "▁corn.": 7902,
      "▁mixing": 7903,
      "▁sharp.": 7904,
      "▁Stop": 7905,
      "▁puzzles.": 7906,
      "▁impressed.": 7907,
      "▁sour.": 7908,
      "Sarah": 7909,
      "▁tickets": 7910,
      "▁\n\nBilly": 7911,
      "▁nervous,": 7912,
      "▁bottom.": 7913,
      "▁relaxed": 7914,
      "▁foolish.": 7915,
      "▁strike": 7916,
      "▁ice-cream.": 7917,
      "▁dishwasher.": 7918,
      "▁punished": 7919,
      "▁lips": 7920,
      "▁hall.": 7921,
      "▁regretted": 7922,
      "▁alright": 7923,
      "▁massage": 7924,
      "▁10": 7925,
      "▁vendor": 7926,
      "▁introduced": 7927,
      "ches.": 7928,
      "go": 7929,
      "sed.": 7930,
      "▁vel": 7931,
      "▁ti": 7932,
      "▁wagging": 7933,
      "omas": 7934,
      "ays": 7935,
      "▁thund": 7936,
      "▁He's": 7937,
      "▁said.\n\nSara": 7938,
      "▁rip": 7939,
      "▁stable": 7940,
      "▁day.\"": 7941,
      "▁play!\"": 7942,
      "▁Both": 7943,
      "▁shake.": 7944,
      "▁there,\"": 7945,
      "▁is!\"": 7946,
      "▁go.\"": 7947,
      "▁board.": 7948,
      "▁can,\"": 7949,
      "▁help!": 7950,
      "▁toy!": 7951,
      "▁change.": 7952,
      "rob": 7953,
      "▁vent": 7954,
      "▁pole.": 7955,
      "▁poison": 7956,
      "▁First,": 7957,
      "▁knowled": 7958,
      "▁\"When": 7959,
      "▁\"Welcome": 7960,
      "▁skipping": 7961,
      "▁\"To": 7962,
      "▁Everyday": 7963,
      "▁struggled": 7964,
      "emma": 7965,
      "▁snugg": 7966,
      "▁says.\n\nShe": 7967,
      "▁tree.\n\nThe": 7968,
      "▁aEURoeCan": 7969,
      "▁shoulder.": 7970,
      "▁tea.": 7971,
      "▁doors": 7972,
      ".\n\nBut,": 7973,
      "▁stole": 7974,
      "▁colors,": 7975,
      "▁jogging": 7976,
      "▁Nut": 7977,
      "▁okay?": 7978,
      "▁shouts": 7979,
      "▁path,": 7980,
      "▁\"Thanks": 7981,
      "▁cuts": 7982,
      "▁wonderful.": 7983,
      "▁name?\"\n\nThe": 7984,
      "▁pink.": 7985,
      "▁dancing.": 7986,
      "▁situ": 7987,
      "▁cream,": 7988,
      "▁deep,": 7989,
      "▁fields.": 7990,
      "s.\"\n\n\"": 7991,
      "▁amazed!": 7992,
      "▁act.": 7993,
      "▁happened!": 7994,
      "▁daughter,": 7995,
      "▁ant.": 7996,
      "▁machines": 7997,
      "▁bridges": 7998,
      "▁Always": 7999,
      "▁dinosaur.": 8000,
      "▁bouncy": 8001,
      "▁grumpy.": 8002,
      "▁purse.": 8003,
      "▁suit.": 8004,
      "▁unusual.": 8005,
      "▁avoid": 8006,
      "▁refle": 8007,
      "▁encourag": 8008,
      "▁tugged": 8009,
      "?\"\n\n\"I'm": 8010,
      "▁museum.": 8011,
      "▁Robert": 8012,
      "▁sausage": 8013,
      "▁measuring": 8014,
      "▁sandcastle": 8015,
      "▁revealed": 8016,
      "▁grocery": 8017,
      "▁victory": 8018,
      "▁refrigerator": 8019,
      "-boo": 8020,
      "▁trophy.": 8021,
      "▁velv": 8022,
      "▁thunder.": 8023,
      "Good": 8024,
      "nies": 8025,
      "▁si": 8026,
      "▁cust": 8027,
      "▁cott": 8028,
      "▁lamb": 8029,
      "▁met.": 8030,
      "▁pies": 8031,
      "▁was!": 8032,
      "▁Tiny": 8033,
      ".\n\nG": 8034,
      "irp": 8035,
      "ama.": 8036,
      "▁bees.": 8037,
      "▁rice.": 8038,
      "▁shed": 8039,
      "▁soak": 8040,
      "▁friend,\"": 8041,
      "▁goal.": 8042,
      "▁them.\n\nLily": 8043,
      "▁Jen.": 8044,
      "▁backed": 8045,
      "▁back.\n\nThey": 8046,
      "▁cape": 8047,
      ".\"\n\nHis": 8048,
      "▁lazy.": 8049,
      "▁swan.": 8050,
      "▁Did": 8051,
      "▁grape": 8052,
      "▁look!\"": 8053,
      "▁Max!": 8054,
      "▁much.\n\nOne": 8055,
      "▁rooms.": 8056,
      "▁careful,\"": 8057,
      "▁says.\n\nBen": 8058,
      "▁cleaning,": 8059,
      "▁Lucy,": 8060,
      "▁ideas": 8061,
      "though": 8062,
      "▁next.": 8063,
      "▁great.": 8064,
      "▁voices": 8065,
      "▁noise,": 8066,
      "▁watch.": 8067,
      "▁\"Dadd": 8068,
      "less,": 8069,
      "▁control": 8070,
      "▁steep": 8071,
      "▁cutting": 8072,
      "▁happily,": 8073,
      "▁candles.": 8074,
      "▁wonderful,": 8075,
      "▁\"Mmm,": 8076,
      "▁count.": 8077,
      "▁reach.": 8078,
      "▁pots": 8079,
      "▁Amy's": 8080,
      "▁Flo": 8081,
      "▁dragged": 8082,
      "▁ants.": 8083,
      "▁forever,": 8084,
      "▁discovering": 8085,
      "▁Something": 8086,
      "▁\"Because": 8087,
      "▁coat,": 8088,
      ".\n\nThis": 8089,
      "▁asleep,": 8090,
      "▁racing": 8091,
      "▁flute.": 8092,
      "▁track.": 8093,
      "▁clap.": 8094,
      "▁awe": 8095,
      "▁log.": 8096,
      "▁recorded": 8097,
      "▁hospital,": 8098,
      "▁sock.": 8099,
      "▁speaking": 8100,
      "▁shelter.": 8101,
      "!\n\nAfter": 8102,
      "▁motorcycle": 8103,
      "▁persistent.": 8104,
      "▁prunes": 8105,
      "▁impatient.": 8106,
      "▁bathtub.": 8107,
      "▁microscope.": 8108,
      "▁disturbed": 8109,
      "▁chimney.": 8110,
      "▁unhappy": 8111,
      "▁instruct": 8112,
      "▁pancakes": 8113,
      "▁dentist": 8114,
      "▁Luke": 8115,
      "▁becoming": 8116,
      "▁x-ray": 8117,
      "▁custom": 8118,
      "▁\"Daddy,": 8119,
      "'s.": 8120,
      "vin": 8121,
      "▁tin": 8122,
      "▁tig": 8123,
      "▁wound": 8124,
      "ines.": 8125,
      "any": 8126,
      "▁it.\n\n\"Let's": 8127,
      "owever,": 8128,
      "▁bee.": 8129,
      "▁that?": 8130,
      "▁web": 8131,
      "▁wealth": 8132,
      "▁fort.": 8133,
      "▁go,\"": 8134,
      "▁leak": 8135,
      "ops": 8136,
      "▁asked.\n\n\"Of": 8137,
      "▁someone.": 8138,
      "▁bird.\n\nThe": 8139,
      "▁away.\n\nLily": 8140,
      "▁meow": 8141,
      "▁ranch": 8142,
      "▁news": 8143,
      "▁scaring": 8144,
      "▁chance.": 8145,
      "▁blink": 8146,
      "▁daddy,": 8147,
      "!\"\n\nMia": 8148,
      "▁one?\"": 8149,
      "?\"\n\nMommy": 8150,
      "▁show,": 8151,
      "▁slap": 8152,
      "▁mosqu": 8153,
      "▁queen.": 8154,
      "▁strings": 8155,
      "▁long.\n\nOne": 8156,
      "▁houses.": 8157,
      "▁closed.": 8158,
      "▁unex": 8159,
      "▁turning": 8160,
      "▁stick,": 8161,
      "▁noisy.": 8162,
      ".\n\n\"Wow!\"": 8163,
      "▁Bob,": 8164,
      "▁bite,": 8165,
      "▁sque": 8166,
      ".\n\nJenny": 8167,
      "▁Mommy!\"": 8168,
      "▁patience": 8169,
      "▁usu": 8170,
      "▁us?\"": 8171,
      "▁ladyb": 8172,
      "▁story:": 8173,
      "▁finished.": 8174,
      "▁planes.": 8175,
      "▁grandma,": 8176,
      "▁\n\n\"What": 8177,
      "▁perfectly.": 8178,
      "▁juicy.": 8179,
      "▁ideas.": 8180,
      "▁Jenny.": 8181,
      "▁reaching": 8182,
      "▁apple,": 8183,
      "▁signs": 8184,
      "▁doctors": 8185,
      "▁horses": 8186,
      "▁cheering": 8187,
      "▁accidents": 8188,
      "▁spoons": 8189,
      "▁mistakes.": 8190,
      "▁parade.": 8191,
      "▁puddles": 8192,
      ".\n\nEventually,": 8193,
      "▁worms": 8194,
      "▁successful.": 8195,
      "▁crocodile.": 8196,
      "▁ugly.": 8197,
      "▁radis": 8198,
      "▁silly,": 8199,
      "▁jogged": 8200,
      "▁confused,": 8201,
      "Grand": 8202,
      "▁apologize": 8203,
      "▁library.": 8204,
      "▁competitive.": 8205,
      "▁exclaimed,": 8206,
      "▁cabinet.": 8207,
      "▁restaurant.": 8208,
      "▁studying": 8209,
      "▁attractive.": 8210,
      "▁mattress.": 8211,
      "▁afternoon,": 8212,
      "▁brush.": 8213,
      "▁Rose.": 8214,
      "▁sprinkles": 8215,
      "▁apart.": 8216,
      "▁freezer": 8217,
      "▁safety": 8218,
      "▁balancing": 8219,
      "▁Squeak": 8220,
      "xcuse": 8221,
      "▁razor": 8222,
      "▁ourselves": 8223,
      "▁deserve": 8224,
      "▁cautious": 8225,
      "▁siren": 8226,
      "▁mosquit": 8227,
      "-f": 8228,
      "My": 8229,
      "Wow,": 8230,
      "ivery": 8231,
      "luffy": 8232,
      "n,": 8233,
      "pite": 8234,
      "ray.": 8235,
      "▁task.": 8236,
      "▁tonight": 8237,
      "▁hive.": 8238,
      "▁heel": 8239,
      "▁he's": 8240,
      "▁opin": 8241,
      "ident.": 8242,
      "oose.": 8243,
      "▁\"Anna,": 8244,
      "▁bend": 8245,
      "▁Lizzy": 8246,
      "▁of.": 8247,
      "▁day.\n\nThe": 8248,
      "▁player.": 8249,
      "▁lied": 8250,
      "▁happier.": 8251,
      "▁king.": 8252,
      "▁said,\"": 8253,
      "\"\n\nM": 8254,
      "▁friend!": 8255,
      "▁them,\"": 8256,
      "▁Jake.": 8257,
      "ope,": 8258,
      "▁looked.": 8259,
      "▁fluffy.": 8260,
      "▁catch.": 8261,
      "inky": 8262,
      "▁enjo": 8263,
      "▁better.\n\nThe": 8264,
      "▁lovely.": 8265,
      "▁Coco": 8266,
      "▁bookcase": 8267,
      "▁both.": 8268,
      "▁closet,": 8269,
      "▁Daddy,": 8270,
      "▁importance": 8271,
      "▁after!": 8272,
      "▁heads.": 8273,
      "▁\n\nSoon,": 8274,
      "▁deer.": 8275,
      "▁cry.\n\nHer": 8276,
      "▁safe.\n\nThe": 8277,
      "▁bunch": 8278,
      "▁patted": 8279,
      "▁home,\"": 8280,
      "▁magic.": 8281,
      "▁smell.": 8282,
      "▁agree.": 8283,
      "▁Joe's": 8284,
      "▁\"Sara,": 8285,
      "▁slowly,": 8286,
      "▁Kitt": 8287,
      "▁walls.": 8288,
      "▁me.\"\n\nLily": 8289,
      "▁land,": 8290,
      "▁quiet,": 8291,
      "▁choice.": 8292,
      "▁\n\nMary": 8293,
      "▁nap,": 8294,
      "▁trains.": 8295,
      "▁soup,": 8296,
      "▁drinks": 8297,
      "▁neighbor,": 8298,
      "▁spoiled.": 8299,
      "▁decorations": 8300,
      "▁mine!": 8301,
      "▁wings,": 8302,
      "▁wise.": 8303,
      "▁Chr": 8304,
      "▁argue.": 8305,
      "▁crack.": 8306,
      "▁problem,": 8307,
      "▁bossy.": 8308,
      ".\n\nWith": 8309,
      "▁spaghetti.": 8310,
      "▁deaf.": 8311,
      "▁cereal.": 8312,
      "pected": 8313,
      "▁avocad": 8314,
      "▁automobile.": 8315,
      "▁include": 8316,
      "▁porch.": 8317,
      "▁someday.": 8318,
      "▁Suzie": 8319,
      "▁achieve": 8320,
      "▁winner": 8321,
      "▁applauded": 8322,
      "▁sides": 8323,
      "▁future.": 8324,
      "▁festival": 8325,
      "eally?": 8326,
      "▁hide-and-seek": 8327,
      "▁frozen": 8328,
      "▁velvet": 8329,
      "▁enjoy.": 8330,
      "\nM": 8331,
      "Daisy": 8332,
      "Look": 8333,
      "ean": 8334,
      "house": 8335,
      "mel": 8336,
      "ye": 8337,
      "▁tang": 8338,
      "▁tummy.": 8339,
      "▁theater.": 8340,
      "▁fir": 8341,
      "▁pitch": 8342,
      "▁opp": 8343,
      "ing!": 8344,
      "▁Sally,": 8345,
      "▁Happy": 8346,
      "▁insp": 8347,
      "▁yet,": 8348,
      "▁stitch": 8349,
      "▁little,": 8350,
      "▁see,": 8351,
      "▁out!\"": 8352,
      ".\n\n\"Tim": 8353,
      "!\",": 8354,
      "▁helper.": 8355,
      "▁alien": 8356,
      "▁what?": 8357,
      "king.": 8358,
      "▁caring.": 8359,
      "▁sadness": 8360,
      "▁poppy": 8361,
      "▁sunlight": 8362,
      "▁harder,": 8363,
      "▁aEURoeYes": 8364,
      "▁story,": 8365,
      "▁teasing": 8366,
      "▁Put": 8367,
      "▁Rock": 8368,
      "▁important,": 8369,
      "▁quickly,": 8370,
      "▁explorer": 8371,
      "▁brightly.": 8372,
      "▁yelled.": 8373,
      "▁first,\"": 8374,
      "▁pretends": 8375,
      "▁touching": 8376,
      "▁spot,": 8377,
      "▁reluct": 8378,
      "▁squirrel,": 8379,
      "▁broken,": 8380,
      "▁answer,": 8381,
      "▁cupc": 8382,
      "▁hearts.": 8383,
      "▁asks.\n\n\"I": 8384,
      "▁collar.": 8385,
      "▁round,": 8386,
      "▁afraid,": 8387,
      "▁cows": 8388,
      "▁success.": 8389,
      "▁egg.": 8390,
      "▁gathering": 8391,
      "▁creature.": 8392,
      "▁\"Bye,": 8393,
      "▁snail": 8394,
      "▁served": 8395,
      "▁serious.": 8396,
      "▁disappear.": 8397,
      "▁answered.": 8398,
      "▁paws.": 8399,
      "work.": 8400,
      "▁guns": 8401,
      "▁puppy,": 8402,
      "▁apologiz": 8403,
      "▁universe": 8404,
      "▁tricks.": 8405,
      "▁harmless.": 8406,
      "▁forth,": 8407,
      "▁costumes": 8408,
      "▁completely": 8409,
      "!\n\nAt": 8410,
      "!\"\n\nAnd": 8411,
      "▁slippery.": 8412,
      "▁filthy.": 8413,
      "▁furniture.": 8414,
      "▁violin.": 8415,
      "▁dictionary.": 8416,
      "▁greedy.": 8417,
      "▁provid": 8418,
      "▁Anne": 8419,
      "▁pleased.": 8420,
      "▁\n\nWhile": 8421,
      "▁\n\nEveryone": 8422,
      "▁harbor": 8423,
      "▁Olive": 8424,
      "▁accomplish": 8425,
      "xyg": 8426,
      "To": 8427,
      "bric": 8428,
      "the": 8429,
      "▁witch.": 8430,
      "▁and,": 8431,
      "inally": 8432,
      "▁cous": 8433,
      "▁mittens": 8434,
      "▁Tilly": 8435,
      "ated.": 8436,
      "▁ha,": 8437,
      "immer": 8438,
      "▁her.\n\nLily": 8439,
      "▁bead": 8440,
      "▁stern": 8441,
      "▁mom!": 8442,
      "▁timer": 8443,
      "▁nect": 8444,
      "▁loving": 8445,
      "▁going,": 8446,
      "▁him?\"": 8447,
      "▁spade": 8448,
      "▁Jacob": 8449,
      "▁knight.": 8450,
      "▁help.\"": 8451,
      "▁Wh": 8452,
      "▁smiled.\n\nThe": 8453,
      "▁fabric": 8454,
      "▁sad.\n\nThe": 8455,
      "▁pride": 8456,
      "▁careless.": 8457,
      "▁vowed": 8458,
      "▁learned.": 8459,
      "▁sorting": 8460,
      "?\"\n\nA": 8461,
      "▁comes.": 8462,
      "▁image": 8463,
      "▁stays": 8464,
      "▁waiter": 8465,
      "▁aEURoeThis": 8466,
      "▁keeps": 8467,
      "▁drain.": 8468,
      "▁Pipp": 8469,
      "▁cone.": 8470,
      "▁unf": 8471,
      "▁Gr": 8472,
      "▁Gina": 8473,
      "▁delivery": 8474,
      "▁Ray": 8475,
      "▁heading": 8476,
      "▁sound,": 8477,
      "▁squeak": 8478,
      "▁letaEURTMs": 8479,
      "▁sand,": 8480,
      ".\n\nMoral": 8481,
      "▁cool,": 8482,
      "▁lights.": 8483,
      "▁farm,": 8484,
      "▁matched": 8485,
      ".\n\n\"OK": 8486,
      "▁children,": 8487,
      "▁wall,": 8488,
      "▁furry.": 8489,
      "▁marked": 8490,
      "▁Billy's": 8491,
      "▁Sally's": 8492,
      "▁deep.": 8493,
      "▁screams": 8494,
      "▁chairs": 8495,
      "▁hearts": 8496,
      "▁packing": 8497,
      "▁forget.": 8498,
      "▁pasta.": 8499,
      "▁one.\"": 8500,
      "▁shop,": 8501,
      "▁replied:": 8502,
      "▁powerful.": 8503,
      "▁meeting.": 8504,
      "▁Two": 8505,
      "!\"\n\n\"Yes,": 8506,
      "▁Leo.": 8507,
      ".\"\n\nTommy": 8508,
      "▁passed,": 8509,
      "▁\"Here,": 8510,
      ".\n\nJohn's": 8511,
      "▁milk,": 8512,
      "▁lemon.": 8513,
      "▁horns": 8514,
      "▁movie.": 8515,
      "Daddy": 8516,
      "▁relax.": 8517,
      "▁week,": 8518,
      "▁bloom.": 8519,
      "▁\"Hello!": 8520,
      ".\n\nEveryone": 8521,
      "▁stealing": 8522,
      "▁clumsy.": 8523,
      "▁tank.": 8524,
      "▁scooter.": 8525,
      ".\n\nDaisy": 8526,
      "▁raft.": 8527,
      "▁ignorant.": 8528,
      "▁beans": 8529,
      "▁bicycle.": 8530,
      "▁office,": 8531,
      "▁kneeled": 8532,
      "▁Betty": 8533,
      ".\n\nTogether,": 8534,
      "▁someday": 8535,
      "▁achieved": 8536,
      "▁possible": 8537,
      "▁Sunday": 8538,
      "▁Julie": 8539,
      "▁earlier": 8540,
      "▁discovery.": 8541,
      "▁sunrise": 8542,
      "▁travelled": 8543,
      "?\"\n\n\"Sure,": 8544,
      "▁lecture": 8545,
      "▁equipment": 8546,
      "▁hoop.": 8547,
      "▁navy": 8548,
      "▁unexpected": 8549,
      "a's": 8550,
      "eo": 8551,
      "fire": 8552,
      "h-": 8553,
      "ied.": 8554,
      "ks": 8555,
      "ten.": 8556,
      "ux": 8557,
      "ury": 8558,
      "▁Y": 8559,
      "ina.": 8560,
      "▁lux": 8561,
      "▁money,": 8562,
      "▁mouse,": 8563,
      "▁page.": 8564,
      "▁Tam": 8565,
      "▁Tues": 8566,
      "▁oxyg": 8567,
      "ena": 8568,
      "▁Sadly,": 8569,
      "▁it?\"\n\nLily": 8570,
      "▁said.\n\nLila": 8571,
      "▁\"Lily": 8572,
      "▁socks": 8573,
      "▁soil.": 8574,
      "▁forward.": 8575,
      "\"\n\nTimmy": 8576,
      "▁there.\"": 8577,
      "▁\n\nTim": 8578,
      "▁did!": 8579,
      "▁Jeff": 8580,
      "▁name,": 8581,
      "▁all!": 8582,
      "▁helper": 8583,
      "▁scra": 8584,
      "▁what.": 8585,
      "▁swooped": 8586,
      "▁twin": 8587,
      "essie": 8588,
      "▁budge.": 8589,
      "▁try,": 8590,
      "▁Come,": 8591,
      "▁staying": 8592,
      "▁underground": 8593,
      "▁imposs": 8594,
      "▁feelings": 8595,
      "▁frame.": 8596,
      "▁happens.": 8597,
      ".\n\n\"Wait": 8598,
      "▁crying,": 8599,
      "▁forgi": 8600,
      "▁firemen": 8601,
      "▁sweetie,": 8602,
      "▁restless.": 8603,
      "▁single": 8604,
      "▁lightn": 8605,
      "▁staring": 8606,
      "▁\n\nJimmy": 8607,
      "▁country.": 8608,
      "▁funny,": 8609,
      "▁tight,": 8610,
      "▁surprises.": 8611,
      "▁Our": 8612,
      "▁acting": 8613,
      "▁snowman's": 8614,
      "▁lonely,": 8615,
      "▁it.\"\n\nThey": 8616,
      "▁buttons.": 8617,
      "▁freeze": 8618,
      "▁zoo,": 8619,
      "▁talking.": 8620,
      ".\n\n\"Here": 8621,
      "▁aEURoeWhy": 8622,
      "▁robot.": 8623,
      "▁dirty,": 8624,
      "▁middle.": 8625,
      "▁argued": 8626,
      "▁seaw": 8627,
      "▁dependable.": 8628,
      "▁purr": 8629,
      "▁normal.": 8630,
      "▁rough.": 8631,
      "▁muffins": 8632,
      "▁twigs": 8633,
      "▁object.": 8634,
      "▁stretching": 8635,
      "▁cartoons": 8636,
      "▁strangers.": 8637,
      "▁sweetheart,": 8638,
      "▁trumpet.": 8639,
      "▁television.": 8640,
      "▁mustache.": 8641,
      "▁behave.": 8642,
      "▁safety.": 8643,
      "▁succeeded": 8644,
      "▁sir.": 8645,
      "▁Uncle": 8646,
      "▁Jane,": 8647,
      "▁difference": 8648,
      "annah": 8649,
      "▁tongue": 8650,
      "▁temple": 8651,
      "▁scurried": 8652,
      "emember,": 8653,
      "▁included": 8654,
      "▁traffic": 8655,
      "▁hammer.": 8656,
      "▁refreshed": 8657,
      "▁mesmer": 8658,
      "▁zero": 8659,
      "▁reluctantly": 8660,
      "And": 8661,
      "▁aim": 8662,
      "▁sib": 8663,
      "▁winning": 8664,
      "▁bin.": 8665,
      "▁waist": 8666,
      "▁dot": 8667,
      "▁dared": 8668,
      "▁gir": 8669,
      "▁it.\n\nWhen": 8670,
      "▁thro": 8671,
      "▁play.\n\nOne": 8672,
      "▁playful.": 8673,
      "▁liqu": 8674,
      "▁want,": 8675,
      "▁why.": 8676,
      "▁Mick": 8677,
      "▁\n\nK": 8678,
      "▁is,": 8679,
      "▁go?\"": 8680,
      "▁them?\"": 8681,
      "▁exp": 8682,
      "▁exha": 8683,
      "▁names.": 8684,
      "▁Tom?\"": 8685,
      "▁helpless.": 8686,
      "ument": 8687,
      "▁caused": 8688,
      "▁scale.": 8689,
      "▁root.": 8690,
      "iff.": 8691,
      "▁good!": 8692,
      "▁decision.": 8693,
      "▁End": 8694,
      "aren": 8695,
      "bbing": 8696,
      "?\"\n\nLila": 8697,
      "▁skunk": 8698,
      "▁proudly.": 8699,
      "▁Jack!": 8700,
      "▁sorry,\"": 8701,
      "▁toys!": 8702,
      "▁glow.": 8703,
      "▁shining.": 8704,
      "▁inside!": 8705,
      "▁share,": 8706,
      "▁conc": 8707,
      "▁rainco": 8708,
      "▁dishes.": 8709,
      "▁rabbit's": 8710,
      "▁belt.": 8711,
      "▁sweet,": 8712,
      "▁sweetie,\"": 8713,
      "▁tries,": 8714,
      "▁favorite.": 8715,
      "▁smile.\n\nThe": 8716,
      "▁singer": 8717,
      "▁taste.": 8718,
      "▁bags.": 8719,
      "▁\nJ": 8720,
      "▁\"See": 8721,
      "▁understand?\"": 8722,
      "room,": 8723,
      "▁me.\"\n\nThe": 8724,
      "▁gifts": 8725,
      "▁amazing!\"": 8726,
      "▁treasures.": 8727,
      "iggy": 8728,
      "s.\"\n\nThey": 8729,
      "▁market,": 8730,
      "▁happened?\"": 8731,
      "!\"\n\nSara": 8732,
      "▁\"Not": 8733,
      "▁bathrobe": 8734,
      "▁giggle.": 8735,
      "▁entire": 8736,
      "▁colours.": 8737,
      "▁Tweety.": 8738,
      "▁tool.": 8739,
      "▁panick": 8740,
      "▁worry,\"": 8741,
      "▁seats": 8742,
      "▁escaped": 8743,
      "▁bench,": 8744,
      "▁Chirp": 8745,
      "▁fearful.": 8746,
      "▁soldi": 8747,
      "▁prayer": 8748,
      "▁luck.": 8749,
      "▁awes": 8750,
      "▁flashlight.": 8751,
      "▁jacket.": 8752,
      "▁OK?\"": 8753,
      "▁tomorrow.\"": 8754,
      "▁selling": 8755,
      "▁seems": 8756,
      "▁airport,": 8757,
      "▁reindeer.": 8758,
      "▁pebbles": 8759,
      "▁backpack.": 8760,
      "▁sunglasses.": 8761,
      "▁holiday.": 8762,
      "▁\n\nOnce": 8763,
      "▁factory.": 8764,
      "▁stroll": 8765,
      "▁freezer.": 8766,
      "▁Beth": 8767,
      "▁crib.": 8768,
      "▁please,\"": 8769,
      "▁mall.": 8770,
      "▁responsible": 8771,
      "▁style": 8772,
      "▁demanded": 8773,
      "▁crowd": 8774,
      "▁supplies": 8775,
      "▁muddy": 8776,
      "▁confident": 8777,
      "eah,": 8778,
      "▁replaced": 8779,
      "▁tipt": 8780,
      "▁giraff": 8781,
      "▁liquid": 8782,
      "▁exhaust": 8783,
      "ger": 8784,
      "sen": 8785,
      "se,\"": 8786,
      "va": 8787,
      "wards": 8788,
      "▁fart": 8789,
      "▁Soph": 8790,
      "▁it.\n\nAs": 8791,
      "ver.": 8792,
      "vered": 8793,
      "▁stare": 8794,
      "▁you!\"\n\nThe": 8795,
      "▁weighed": 8796,
      "▁Billy,": 8797,
      "▁\n\nThat": 8798,
      "sequ": 8799,
      "▁too.\"\n\nThey": 8800,
      "ill.": 8801,
      "▁see,\"": 8802,
      "way.": 8803,
      "▁spike": 8804,
      "▁June": 8805,
      "▁exit": 8806,
      "▁arrow.": 8807,
      "!\"\n": 8808,
      "▁started.": 8809,
      "▁worse.": 8810,
      "▁meal.": 8811,
      "▁news.": 8812,
      "▁pride.": 8813,
      "▁Mom!": 8814,
      "▁Samantha": 8815,
      "▁Jacky": 8816,
      "▁careful.\"": 8817,
      "▁says.\n\n\"OK,": 8818,
      "▁wonder.": 8819,
      "!\n\nJack": 8820,
      "▁consequ": 8821,
      "▁flying,": 8822,
      "▁written": 8823,
      "▁sticking": 8824,
      "▁amazing,": 8825,
      "▁here!": 8826,
      "▁here?": 8827,
      "▁kids,\"": 8828,
      ".\n\nJim": 8829,
      "▁reads": 8830,
      "▁drawer.": 8831,
      "▁softly.": 8832,
      "▁prints": 8833,
      "▁bunny,": 8834,
      "▁world.\n\nOne": 8835,
      "aEUR\n\nSo": 8836,
      ".\n\nTom's": 8837,
      "▁understand?\"\n\nLily": 8838,
      "▁pies.": 8839,
      "▁bathe": 8840,
      "▁else,": 8841,
      "▁hot,": 8842,
      "▁creating": 8843,
      "▁attent": 8844,
      "▁today.\"": 8845,
      ".\"\n\n\"I": 8846,
      "▁cover.": 8847,
      "▁winked": 8848,
      "▁wheels.": 8849,
      "▁letter.": 8850,
      "▁keys": 8851,
      "▁stirring": 8852,
      "▁Alice.": 8853,
      "▁Pete.": 8854,
      "▁delighted.": 8855,
      "▁Blue.": 8856,
      "▁glasses": 8857,
      "▁Susie.": 8858,
      "▁tickled": 8859,
      "▁course!\"": 8860,
      "▁stuff.": 8861,
      "▁backyard,": 8862,
      "▁soaring": 8863,
      "▁rides": 8864,
      "▁competition": 8865,
      "▁clown.": 8866,
      "pot,": 8867,
      "▁rescued": 8868,
      "▁flexible.": 8869,
      "▁stubborn.": 8870,
      "▁nails": 8871,
      "▁curtain.": 8872,
      "▁minerals": 8873,
      ".\n\nNext,": 8874,
      "▁fireplace.": 8875,
      "▁cube.": 8876,
      "▁laundry.": 8877,
      "▁\"you": 8878,
      "▁wobbled": 8879,
      "Everyone": 8880,
      "▁boo-boo": 8881,
      "Grandpa": 8882,
      "▁mosquito": 8883,
      "▁Christ": 8884,
      "case.": 8885,
      "e!\"": 8886,
      "i.": 8887,
      "iar": 8888,
      "loe": 8889,
      "njoy": 8890,
      "▁ast": 8891,
      "▁wink": 8892,
      "▁dry,": 8893,
      "ering": 8894,
      "▁was.\n\nThe": 8895,
      "▁third": 8896,
      "▁stable.": 8897,
      "▁Lun": 8898,
      "▁onion.": 8899,
      "▁up.\n\nThe": 8900,
      "step": 8901,
      "▁Mandy.": 8902,
      "▁there!\"": 8903,
      "▁is,\"": 8904,
      "▁spin.": 8905,
      "▁Jazz": 8906,
      "▁see!\"": 8907,
      "asp": 8908,
      "▁fact": 8909,
      "▁Timmy,\"": 8910,
      "▁park!": 8911,
      "ie's": 8912,
      "▁again?\"": 8913,
      "▁switch.": 8914,
      "▁Ducky.": 8915,
      "▁intr": 8916,
      "▁one!": 8917,
      "?\"\n\nMax": 8918,
      "▁handful": 8919,
      "aura": 8920,
      "▁this.\"": 8921,
      "▁opened,": 8922,
      "▁scared.\n\nThe": 8923,
      "▁trying.": 8924,
      "▁trying,": 8925,
      "▁Cra": 8926,
      "▁toys.\n\nOne": 8927,
      "▁forehe": 8928,
      "▁rocking": 8929,
      "▁wrink": 8930,
      "▁Nick": 8931,
      "▁owners": 8932,
      "▁quick.": 8933,
      "▁asks,": 8934,
      "▁before.\n\nThe": 8935,
      "▁curios": 8936,
      "▁boats.": 8937,
      "▁hats.": 8938,
      "▁\"Happy": 8939,
      "▁partic": 8940,
      "▁cut.": 8941,
      "▁cooler.": 8942,
      "▁world!": 8943,
      "▁yummy,": 8944,
      "▁fairies": 8945,
      "▁frog,": 8946,
      "▁seen!": 8947,
      "▁\n\nJill": 8948,
      "▁shoe.": 8949,
      "▁word.": 8950,
      "▁shapes,": 8951,
      "▁surprised!": 8952,
      "▁holes.": 8953,
      "▁petal": 8954,
      "▁windows.": 8955,
      "▁attack": 8956,
      "▁rolls": 8957,
      "▁done?": 8958,
      "▁guest": 8959,
      "▁heavy,": 8960,
      "▁buckets": 8961,
      ".\n\n\"My": 8962,
      "▁mistakes": 8963,
      "▁yes!": 8964,
      "▁cows,": 8965,
      "▁feather.": 8966,
      "▁pouring": 8967,
      "▁shrinking": 8968,
      "▁mountain,": 8969,
      "▁tools.": 8970,
      "▁presents.": 8971,
      "▁Peter.": 8972,
      "▁jewels": 8973,
      "▁turtle.": 8974,
      "▁relaxed.": 8975,
      ".\n\n\"Do": 8976,
      "▁strawberries": 8977,
      "▁Nemo.": 8978,
      "▁curly": 8979,
      "▁bitter.": 8980,
[...]
